{
  "version": "1.0",
  "truncation": null,
  "padding": null,
  "added_tokens": [
    {
      "id": 0,
      "content": "<bos>",
      "single_word": false,
      "lstrip": false,
      "rstrip": false,
      "normalized": false,
      "special": true
    },
    {
      "id": 1,
      "content": "<eos>",
      "single_word": false,
      "lstrip": false,
      "rstrip": false,
      "normalized": false,
      "special": true
    },
    {
      "id": 2,
      "content": "<pad>",
      "single_word": false,
      "lstrip": false,
      "rstrip": false,
      "normalized": false,
      "special": true
    },
    {
      "id": 3,
      "content": "<mask>",
      "single_word": false,
      "lstrip": false,
      "rstrip": false,
      "normalized": false,
      "special": true
    }
  ],
  "normalizer": null,
  "pre_tokenizer": {
    "type": "ByteLevel",
    "add_prefix_space": true,
    "trim_offsets": true,
    "use_regex": true
  },
  "post_processor": {
    "type": "ByteLevel",
    "add_prefix_space": true,
    "trim_offsets": true,
    "use_regex": true
  },
  "decoder": {
    "type": "ByteLevel",
    "add_prefix_space": true,
    "trim_offsets": true,
    "use_regex": true
  },
  "model": {
    "type": "BPE",
    "dropout": null,
    "unk_token": null,
    "continuing_subword_prefix": null,
    "end_of_word_suffix": null,
    "fuse_unk": false,
    "byte_fallback": false,
    "ignore_merges": false,
    "vocab": {
      "<bos>": 0,
      "<eos>": 1,
      "<pad>": 2,
      "<mask>": 3,
      " ": 4,
      "!": 5,
      "\"": 6,
      "(": 7,
      ")": 8,
      ",": 9,
      "-": 10,
      ".": 11,
      "0": 12,
      "1": 13,
      "2": 14,
      "3": 15,
      "4": 16,
      "5": 17,
      "6": 18,
      "7": 19,
      "8": 20,
      "9": 21,
      ":": 22,
      ";": 23,
      "<": 24,
      ">": 25,
      "?": 26,
      "`": 27,
      "a": 28,
      "b": 29,
      "c": 30,
      "d": 31,
      "e": 32,
      "f": 33,
      "g": 34,
      "h": 35,
      "i": 36,
      "j": 37,
      "k": 38,
      "l": 39,
      "m": 40,
      "n": 41,
      "o": 42,
      "p": 43,
      "q": 44,
      "r": 45,
      "s": 46,
      "t": 47,
      "u": 48,
      "v": 49,
      "w": 50,
      "x": 51,
      "y": 52,
      "z": 53,
      "¦": 54,
      "§": 55,
      "«": 56,
      "¬": 57,
      "±": 58,
      "¶": 59,
      "»": 60,
      "¼": 61,
      "Â": 62,
      "Ã": 63,
      "Ä": 64,
      "Å": 65,
      "É": 66,
      "Ì": 67,
      "â": 68,
      "ç": 69,
      "ö": 70,
      "ü": 71,
      "ğ": 72,
      "Ġ": 73,
      "Ģ": 74,
      "ĩ": 75,
      "ı": 76,
      "ĵ": 77,
      "Ļ": 78,
      "ľ": 79,
      "Ŀ": 80,
      "Ł": 81,
      "ş": 82,
      "ə": 83,
      "̇": 84,
      "–": 85,
      "’": 86,
      "“": 87,
      "”": 88,
      "…": 89,
      "ÉĻ": 90,
      "Ä±": 91,
      "os": 92,
      "Ġ<": 93,
      "Ã¼": 94,
      "Ġb": 95,
      "ÅŁ": 96,
      "ar": 97,
      "bos": 98,
      "eos": 99,
      "an": 100,
      "Ġd": 101,
      "in": 102,
      "lÉĻ": 103,
      "ir": 104,
      "Ġo": 105,
      "ÉĻn": 106,
      "Ä±n": 107,
      "Ã§": 108,
      "Ġs": 109,
      "di": 110,
      "Ã¶": 111,
      "Ġq": 112,
      "Ġm": 113,
      "Ġg": 114,
      "Ġa": 115,
      "Ġy": 116,
      "Ġh": 117,
      "ÉĻr": 118,
      "Ġi": 119,
      "Ġk": 120,
      "dÄ±": 121,
      "ÄŁ": 122,
      "Ġv": 123,
      "lar": 124,
      "da": 125,
      "la": 126,
      "ma": 127,
      "Ã¼n": 128,
      "un": 129,
      "Ġe": 130,
      "Ġt": 131,
      "lÉĻr": 132,
      "mÉĻ": 133,
      "dÉĻ": 134,
      "ĠÃ§": 135,
      "li": 136,
      "ÉĻt": 137,
      "mi": 138,
      "Ġon": 139,
      "Ä±r": 140,
      "Ġbir": 141,
      "ey": 142,
      "Ġki": 143,
      "Ġn": 144,
      "al": 145,
      "er": 146,
      "ÉĻs": 147,
      "il": 148,
      "Ġba": 149,
      "aq": 150,
      "ur": 151,
      "dÉĻn": 152,
      "ĠdÉĻ": 153,
      "ĠmÉĻn": 154,
      "ĠvÉĻ": 155,
      "ĠgÃ¶": 156,
      "âĢ": 157,
      "dan": 158,
      "iz": 159,
      "ya": 160,
      "ÉĻk": 161,
      "Ġol": 162,
      "ÉĻl": 163,
      "Ġda": 164,
      "ÉĻm": 165,
      "Ġp": 166,
      "ĠâĢ": 167,
      "am": 168,
      "on": 169,
      "Ä±ÅŁ": 170,
      "st": 171,
      "ĠÃ¶": 172,
      "ĠÃ¼": 173,
      "ĠâĢĵ": 174,
      "Ġbu": 175,
      "dir": 176,
      "Ġya": 177,
      "Ã¼r": 178,
      "ÉĻy": 179,
      "at": 180,
      "ox": 181,
      "ĠÅŁ": 182,
      "du": 183,
      "lÄ±": 184,
      "Ä±nÄ±": 185,
      "ra": 186,
      "eÃ§": 187,
      "Ġc": 188,
      "ini": 189,
      "ki": 190,
      "Ġet": 191,
      "ĠbaÅŁ": 192,
      "Ġx": 193,
      "or": 194,
      "ĠÉĻ": 195,
      "as": 196,
      "en": 197,
      "Ã¼ÅŁ": 198,
      "im": 199,
      "dÄ±r": 200,
      "ĠgÃ¶r": 201,
      "Ġqa": 202,
      "Ġf": 203,
      "ĠÃ¶z": 204,
      "ik": 205,
      "miÅŁ": 206,
      "ĠnÉĻ": 207,
      "Ġsa": 208,
      "ÄŁÄ±": 209,
      "Ġdey": 210,
      "Ġbil": 211,
      "sÉĻ": 212,
      "Ä±nda": 213,
      "Ġan": 214,
      "cÉĻ": 215,
      "inÉĻ": 216,
      "yÉĻ": 217,
      "Ġar": 218,
      "mÉĻk": 219,
      "irdi": 220,
      "ÉĻlÉĻ": 221,
      "Ä±z": 222,
      "Ġu": 223,
      "Ġal": 224,
      "dÃ¼": 225,
      "ol": 226,
      "ib": 227,
      "ÉĻh": 228,
      "Ġonun": 229,
      "ĠmÃ¼": 230,
      "ĠÃ§ox": 231,
      "larÄ±n": 232,
      "larÄ±": 233,
      "caq": 234,
      "indÉĻ": 235,
      "ta": 236,
      "ÅŁÄ±": 237,
      "mÄ±ÅŁ": 238,
      "Ġde": 239,
      "lÉĻri": 240,
      "is": 241,
      "Ġin": 242,
      "Ġver": 243,
      "ĠheÃ§": 244,
      "ÄŁa": 245,
      "Ä±rdÄ±": 246,
      "anÄ±n": 247,
      "unu": 248,
      "ÉĻd": 249,
      "ab": 250,
      "maq": 251,
      "Ġson": 252,
      "et": 253,
      "Ġidi": 254,
      "Ġz": 255,
      "yi": 256,
      "ĠÃ¼Ã§": 257,
      "ÉĻb": 258,
      "ĠhÉĻr": 259,
      "Ġla": 260,
      "uÅŁ": 261,
      "ĠgÃ¶z": 262,
      "ca": 263,
      "ĠdÃ¼ÅŁ": 264,
      "ul": 265,
      "ay": 266,
      "Ä±x": 267,
      "Ä±q": 268,
      "Ä±b": 269,
      "iy": 270,
      "Ìĩ": 271,
      "lik": 272,
      "Ġbe": 273,
      "Ġqar": 274,
      "lan": 275,
      "lÉĻn": 276,
      "ĠelÉĻ": 277,
      "ĠsÃ¶": 278,
      "Ġr": 279,
      "Ġsiz": 280,
      "Ġist": 281,
      "it": 282,
      "ĠilÉĻ": 283,
      "Ġkimi": 284,
      "Ä±na": 285,
      "Ġyer": 286,
      "ov": 287,
      "Ä±m": 288,
      "inin": 289,
      "ĠhÉĻ": 290,
      "Ġbax": 291,
      "ĠsÉĻn": 292,
      "ĠÅŁey": 293,
      "Ä±l": 294,
      "ub": 295,
      "Ġona": 296,
      "oy": 297,
      "ĠÃ¼Ã§Ã¼n": 298,
      "iq": 299,
      "Ġqal": 300,
      "ĠgÉĻl": 301,
      "Ġsonra": 302,
      "Ġyax": 303,
      "ax": 304,
      "ah": 305,
      "Ã¼nÃ¼": 306,
      "Ã¼m": 307,
      "sa": 308,
      "oÅŁ": 309,
      "Ġvar": 310,
      "Ġonu": 311,
      "mÉĻyÉĻ": 312,
      "Ã¼k": 313,
      "ĠÃ§Ä±x": 314,
      "ÉĻz": 315,
      "si": 316,
      "Ġoldu": 317,
      "ĠÉĻl": 318,
      "sÄ±": 319,
      "Ã¼t": 320,
      "irÉĻm": 321,
      "indÉĻn": 322,
      "Ġyox": 323,
      "ÉĻrÉĻ": 324,
      "Ġbiz": 325,
      "Ġedir": 326,
      "Ġancaq": 327,
      "ĠbelÉĻ": 328,
      "Ġbun": 329,
      "lay": 330,
      "ÉĻdÉĻr": 331,
      "ev": 332,
      "ĠisÉĻ": 333,
      "Ġta": 334,
      "ÉĻli": 335,
      "Ġetdi": 336,
      "ara": 337,
      "kin": 338,
      "um": 339,
      "ri": 340,
      "ti": 341,
      "Ġolma": 342,
      "ĠgÃ¼n": 343,
      "Ġam": 344,
      "ÉĻc": 345,
      "ĠaÄŁ": 346,
      "ĠqÉĻdÉĻr": 347,
      "mÄ±ÅŁdÄ±": 348,
      "ĠÃ¼z": 349,
      "av": 350,
      "dur": 351,
      "ha": 352,
      "Ġada": 353,
      "Ġdedi": 354,
      "Ġdeyil": 355,
      "ĠiÅŁ": 356,
      "Ä±nÄ±n": 357,
      "miÅŁdi": 358,
      "Ġbur": 359,
      "Ã¼l": 360,
      "ĠdÃ¶": 361,
      "Ġax": 362,
      "Ã¼b": 363,
      "ut": 364,
      "ĠbÃ¼t": 365,
      "lÄ±q": 366,
      "yÉĻt": 367,
      "el": 368,
      "Ġge": 369,
      "anÄ±": 370,
      "Ġay": 371,
      "Ġadam": 372,
      "ĠbÃ¼tÃ¼n": 373,
      "aÅŁ": 374,
      "vv": 375,
      "Ġyen": 376,
      "Ġamma": 377,
      "Ġbi": 378,
      "Ġvax": 379,
      "ĠkeÃ§": 380,
      "san": 381,
      "Ġfik": 382,
      "ĠmÉĻnim": 383,
      "araq": 384,
      "Ã¼z": 385,
      "Ġdaha": 386,
      "iniz": 387,
      "ladÄ±": 388,
      "lÉĻÅŁ": 389,
      "sÉĻn": 390,
      "ĠtÉĻ": 391,
      "yan": 392,
      "anÄ±ÅŁ": 393,
      "Ġat": 394,
      "muÅŁ": 395,
      "ĠbÃ¶": 396,
      "Ġonlar": 397,
      "ada": 398,
      "iÅŁ": 399,
      "Ġolan": 400,
      "Ġvaxt": 401,
      "Â«": 402,
      "ĠÂ«": 403,
      "Ġl": 404,
      "Ġaz": 405,
      "maÄŁa": 406,
      "Ġot": 407,
      "laÅŁ": 408,
      "ĠqÄ±z": 409,
      "ĠolduÄŁ": 410,
      "if": 411,
      "dÄ±n": 412,
      "ĠÉĻs": 413,
      "Ġyan": 414,
      "ĠÃ§ÉĻk": 415,
      "bÉĻt": 416,
      "Â»": 417,
      "us": 418,
      "dim": 419,
      "ĠmÉĻnÉĻ": 420,
      "ĠgÃ¶rÉĻ": 421,
      "qa": 422,
      "Ġdo": 423,
      "ĠsÃ¶z": 424,
      "Ġolar": 425,
      "ĠyaxÅŁÄ±": 426,
      "ĠdÉĻr": 427,
      "ĠÃ¼st": 428,
      "Ġham": 429,
      "ÄŁÄ±nÄ±": 430,
      "ĠkÃ¶": 431,
      "Ġpar": 432,
      "id": 433,
      "Ġart": 434,
      "ĠhÉĻm": 435,
      "van": 436,
      "lÉĻrini": 437,
      "Ġindi": 438,
      "qiq": 439,
      "ĠdanÄ±ÅŁ": 440,
      "ĠiÃ§": 441,
      "ĠÃ¶l": 442,
      "iss": 443,
      "ez": 444,
      "fÉĻ": 445,
      "Ġyal": 446,
      "Ġlakin": 447,
      "Ġqor": 448,
      "Ġha": 449,
      "Ġuz": 450,
      "urdu": 451,
      "gÉĻr": 452,
      "diy": 453,
      "Ä±ndan": 454,
      "ĠmÉĻ": 455,
      "Ã¼nÉĻ": 456,
      "tÉĻ": 457,
      "lÉĻy": 458,
      "ĠaÃ§": 459,
      "Ġget": 460,
      "Ġiki": 461,
      "ĠÉĻvv": 462,
      "ci": 463,
      "Ġbunu": 464,
      "ÉĻsi": 465,
      "ĠartÄ±q": 466,
      "ÉĻrÉĻk": 467,
      "Ġil": 468,
      "arÄ±": 469,
      "Ġqoy": 470,
      "ĠÉĻvvÉĻl": 471,
      "liy": 472,
      "es": 473,
      "mÉĻz": 474,
      "Ã¼rdÃ¼": 475,
      "iÃ§": 476,
      "Ġhey": 477,
      "ĠdÃ¼ÅŁÃ¼n": 478,
      "Ġra": 479,
      "miz": 480,
      "ĠbÃ¶y": 481,
      "ĠtÉĻs": 482,
      "Ġtut": 483,
      "ĠmÉĻh": 484,
      "ĠbaÄŁ": 485,
      "ĠmÉĻni": 486,
      "kÄ±": 487,
      "Ä±ram": 488,
      "ÅŁa": 489,
      "lu": 490,
      "xu": 491,
      "Ġfikir": 492,
      "larÄ±nÄ±": 493,
      "kÉĻ": 494,
      "Ġhar": 495,
      "Ġhiss": 496,
      "sÄ±nÄ±": 497,
      "yn": 498,
      "Ġsev": 499,
      "ĠqarÅŁÄ±": 500,
      "Ġtap": 501,
      "anda": 502,
      "yat": 503,
      "uz": 504,
      "Ġne": 505,
      "ĠhamÄ±": 506,
      "ÉĻdÉĻ": 507,
      "ĠbaÅŁqa": 508,
      "cÉĻy": 509,
      "Ġbar": 510,
      "ĠeÅŁ": 511,
      "ÉĻtta": 512,
      "Ġbilm": 513,
      "Ġdi": 514,
      "Ġev": 515,
      "diyi": 516,
      "Ġma": 517,
      "ĠhÉĻtta": 518,
      "lÉĻrin": 519,
      "iyyÉĻt": 520,
      "ĠistÉĻy": 521,
      "dÃ¼r": 522,
      "dÄ±m": 523,
      "dÄ±ÄŁÄ±": 524,
      "ĠgÃ¶rÃ¼n": 525,
      "ĠbilÉĻr": 526,
      "ĠnecÉĻ": 527,
      "ĠbÃ¶yÃ¼k": 528,
      "ĠtÉĻk": 529,
      "Ġola": 530,
      "iya": 531,
      "Ġyol": 532,
      "ÉĻti": 533,
      "Ġcav": 534,
      "cÉĻk": 535,
      "ĠhÉĻlÉĻ": 536,
      "ek": 537,
      "Ġhal": 538,
      "ĠkÉĻs": 539,
      "siniz": 540,
      "ĠsÉĻs": 541,
      "Ġqay": 542,
      "Ġyu": 543,
      "ĠdÉĻfÉĻ": 544,
      "ÉĻri": 545,
      "kÉĻn": 546,
      "zÄ±m": 547,
      "ĠtÉĻrÉĻ": 548,
      "ÉĻlÉĻn": 549,
      "ĠdoÄŁ": 550,
      "zÄ±": 551,
      "Ġsan": 552,
      "mÉĻy": 553,
      "ĠgÃ¶st": 554,
      "ÉĻyÉĻ": 555,
      "siz": 556,
      "ĠÉĻn": 557,
      "ĠÃ§at": 558,
      "Ġqap": 559,
      "Ġyaln": 560,
      "ĠetmÉĻk": 561,
      "Ġyeni": 562,
      "ĠyalnÄ±z": 563,
      "ĠâĢľ": 564,
      "ĠlazÄ±m": 565,
      "uy": 566,
      "Ã¼c": 567,
      "ĠtÉĻr": 568,
      "Ġalt": 569,
      "ÉĻng": 570,
      "ĠedÉĻ": 571,
      "Ġharri": 572,
      "ÉĻf": 573,
      "Ã¶v": 574,
      "ĠmÉĻs": 575,
      "Ġyar": 576,
      "ĠbaÅŁa": 577,
      "bÉĻ": 578,
      "ru": 579,
      "Ġtez": 580,
      "ĠÃ¶zÃ¼nÃ¼": 581,
      "Ġzam": 582,
      "Ġlen": 583,
      "ĠsÃ¶y": 584,
      "Ã¼ndÉĻ": 585,
      "Ġtama": 586,
      "Ġburada": 587,
      "maz": 588,
      "ĠgÃ¼l": 589,
      "ĠyenÉĻ": 590,
      "ĠtÉĻrÉĻf": 591,
      "ap": 592,
      "ĠÃ¶zÃ¼": 593,
      "oviÃ§": 594,
      "ĠolduÄŁunu": 595,
      "yo": 596,
      "ĠdÉĻqiq": 597,
      "asÄ±": 598,
      "asÄ±nda": 599,
      "ayÉĻt": 600,
      "ÉĻni": 601,
      "Ġhaq": 602,
      "mÃ¼ÅŁ": 603,
      "Ġcavab": 604,
      "don": 605,
      "iyÉĻ": 606,
      "Ġkat": 607,
      "ĠÃ§al": 608,
      "Ġqorx": 609,
      "ĠdÃ¼z": 610,
      "Ġqo": 611,
      "mÉĻt": 612,
      "Ġdayan": 613,
      "kit": 614,
      "ĠÉĻz": 615,
      "Ġarx": 616,
      "ĠoÄŁ": 617,
      "Ġora": 618,
      "ĠbaÅŁladÄ±": 619,
      "muÅŁdu": 620,
      "ÉĻhÉĻr": 621,
      "ĠgÃ¶stÉĻr": 622,
      "tar": 623,
      "yoÅŁ": 624,
      "ÉĻnc": 625,
      "Ġsal": 626,
      "Ġkim": 627,
      "Ġst": 628,
      "mÉĻli": 629,
      "ĠalyoÅŁ": 630,
      "ok": 631,
      "rÄ±": 632,
      "Ġit": 633,
      "una": 634,
      "Ġsizin": 635,
      "Ã§Ä±": 636,
      "Ġye": 637,
      "adÉĻ": 638,
      "rin": 639,
      "Ġad": 640,
      "raf": 641,
      "Ġverdi": 642,
      "ĠÃ§Ä±xar": 643,
      "Ġhalda": 644,
      "bir": 645,
      "ÉĻnin": 646,
      "âĢĿ": 647,
      "par": 648,
      "Ġpul": 649,
      "ĠyaÅŁ": 650,
      "ĠdÃ¼n": 651,
      "ĠqÉĻr": 652,
      "ston": 653,
      "ÉĻyi": 654,
      "Ġsaat": 655,
      "ÉĻq": 656,
      "Ġqur": 657,
      "ĠÉĻgÉĻr": 658,
      "Ġsax": 659,
      "Ġuin": 660,
      "ĠyaxÄ±n": 661,
      "lÉĻt": 662,
      "ĠqadÄ±n": 663,
      "qdon": 664,
      "Ġolun": 665,
      "Ġlenqdon": 666,
      "Ġuinston": 667,
      "ĠonlarÄ±n": 668,
      "ĠdeyÉĻ": 669,
      "Ġotur": 670,
      "mk": 671,
      "ĠbÉĻl": 672,
      "ĠhÉĻmin": 673,
      "aya": 674,
      "Ã¼s": 675,
      "Ġeh": 676,
      "ÉĻmi": 677,
      "ĠnÉĻz": 678,
      "ĠbÉĻz": 679,
      "Ġsu": 680,
      "daÅŁ": 681,
      "alÄ±": 682,
      "cÄ±": 683,
      "ĠxoÅŁ": 684,
      "Ġedirdi": 685,
      "ad": 686,
      "aÄŁ": 687,
      "ndi": 688,
      "Ã¼nki": 689,
      "ĠbirdÉĻn": 690,
      "ĠbÉĻlkÉĻ": 691,
      "adan": 692,
      "eÅŁ": 693,
      "kar": 694,
      "ĠgÉĻt": 695,
      "lara": 696,
      "ĠneÃ§": 697,
      "ĠÃ¼r": 698,
      "Ã¼y": 699,
      "ĠÃ§Ã¼nki": 700,
      "Ġsakit": 701,
      "Ġbizim": 702,
      "ĠÃ§alÄ±ÅŁ": 703,
      "dor": 704,
      "op": 705,
      "dib": 706,
      "lardan": 707,
      "ĠdemÉĻk": 708,
      "ĠneÃ§ÉĻ": 709,
      "ÉĻdÉĻn": 710,
      "Ġqu": 711,
      "Ġapar": 712,
      "az": 713,
      "rÉĻt": 714,
      "uq": 715,
      "yyÉĻt": 716,
      "Ġfyo": 717,
      "ĠgÃ¼c": 718,
      "ĠhÉĻmiÅŁ": 719,
      "Ġheyvan": 720,
      "Ġfyodor": 721,
      "Ä±ÄŁ": 722,
      "ĠqaÃ§": 723,
      "larÄ±nÄ±n": 724,
      "Ġhaqq": 725,
      "hal": 726,
      "dil": 727,
      "Ġiz": 728,
      "ĠaxÄ±": 729,
      "ist": 730,
      "yÉĻn": 731,
      "ĠbÉĻr": 732,
      "dÄ±ÄŁÄ±nÄ±": 733,
      "laq": 734,
      "Ġdav": 735,
      "Ġinan": 736,
      "Ġqalx": 737,
      "Ġbuna": 738,
      "Ġbunun": 739,
      "diyini": 740,
      "sÄ±nda": 741,
      "var": 742,
      "ÅŁaq": 743,
      "lÉĻrinÉĻ": 744,
      "mÉĻs": 745,
      "ĠgÃ¶t": 746,
      "ĠhÉĻyat": 747,
      "ĠvardÄ±": 748,
      "Ġinsan": 749,
      "ĠedirÉĻm": 750,
      "ĠdÉĻrhal": 751,
      "ilÉĻ": 752,
      "zÄ±r": 753,
      "Ġboy": 754,
      "Ġgiz": 755,
      "ĠyanÄ±n": 756,
      "Ġeyn": 757,
      "yiÅŁ": 758,
      "Ġayaq": 759,
      "din": 760,
      "eh": 761,
      "Ġir": 762,
      "ĠÉĻy": 763,
      "mÉĻdÉĻn": 764,
      "Ã¼rÉĻm": 765,
      "Ġsanki": 766,
      "sÄ±z": 767,
      "xt": 768,
      "ÉĻtlÉĻ": 769,
      "ĠonlarÄ±": 770,
      "ĠfikirlÉĻÅŁ": 771,
      "ĠdoÄŁru": 772,
      "dar": 773,
      "mir": 774,
      "tÄ±": 775,
      "Ġsor": 776,
      "Ġqat": 777,
      "ĠtÉĻlÉĻ": 778,
      "ĠmÉĻr": 779,
      "ĠsadÉĻ": 780,
      "Ġbilir": 781,
      "ĠÃ¼zÉĻr": 782,
      "rÉĻ": 783,
      "ĠÉĻt": 784,
      "Ġgir": 785,
      "Ġpu": 786,
      "ĠsÉĻnin": 787,
      "ĠÉĻlbÉĻt": 788,
      "ĠgÉĻtir": 789,
      "ĠhÉĻmiÅŁÉĻ": 790,
      "mÄ±": 791,
      "ob": 792,
      "dÄ±q": 793,
      "Ġbiri": 794,
      "âĢ¦": 795,
      "Ġpi": 796,
      "Ġqab": 797,
      "ĠistÉĻ": 798,
      "ĠhazÄ±r": 799,
      "ĠÉĻlbÉĻttÉĻ": 800,
      "ĠsÉĻr": 801,
      "ĠsÃ¼r": 802,
      "ĠaÄŁa": 803,
      "ĠÃ¶zÃ¼m": 804,
      "hbÉĻt": 805,
      "Ġkar": 806,
      "dÉĻt": 807,
      "ĠxÉĻb": 808,
      "ĠsizÉĻ": 809,
      "ĠbarÉĻdÉĻ": 810,
      "Ġzaman": 811,
      "ÉĻlÉĻr": 812,
      "ÉĻndÉĻ": 813,
      "Ã¶k": 814,
      "Ġmey": 815,
      "ÄŁÄ±n": 816,
      "malÄ±": 817,
      "ĠcÃ¼r": 818,
      "ÉĻbi": 819,
      "ĠgÃ¶zÉĻl": 820,
      "Ġorada": 821,
      "unun": 822,
      "Ġonda": 823,
      "Ġxey": 824,
      "ĠbaxdÄ±": 825,
      "Ġyoxdur": 826,
      "Ġehti": 827,
      "ĠsoruÅŁ": 828,
      "aÄŁÄ±": 829,
      "lÉĻdi": 830,
      "Ġket": 831,
      "Ġvur": 832,
      "ĠÃ§ev": 833,
      "milÉĻ": 834,
      "Ġdeyir": 835,
      "ÉĻcÉĻk": 836,
      "ana": 837,
      "Ġif": 838,
      "eri": 839,
      "ĠÅŁÉĻk": 840,
      "ĠnÉĻf": 841,
      "ĠhÉĻrÉĻk": 842,
      "ĠyanÄ±nda": 843,
      "ĠkÉĻn": 844,
      "may": 845,
      "mÉĻdi": 846,
      "ÉĻtli": 847,
      "onun": 848,
      "dirdi": 849,
      "ĠqayÄ±": 850,
      "Ġpuar": 851,
      "ka": 852,
      "Ġox": 853,
      "Ġqr": 854,
      "ĠgÉĻlÉĻn": 855,
      "larla": 856,
      "erin": 857,
      "ĠvÉĻz": 858,
      "Ġcin": 859,
      "ĠyerÉĻ": 860,
      "ĠtamamilÉĻ": 861,
      "ĠalyoÅŁa": 862,
      "om": 863,
      "ĠdÉĻrÉĻ": 864,
      "Ġmit": 865,
      "mas": 866,
      "ildÉĻ": 867,
      "Ġpr": 868,
      "Ġyaz": 869,
      "ĠÃ¶ldÃ¼r": 870,
      "ĠhaqqÄ±nda": 871,
      "tr": 872,
      "ĠedÉĻn": 873,
      "lÉĻrÉĻ": 874,
      "lis": 875,
      "ĠdÉĻh": 876,
      "Ġyat": 877,
      "ĠgÃ¶rdÃ¼": 878,
      "ĠuÅŁaq": 879,
      "Ġdavam": 880,
      "ak": 881,
      "lÃ¼k": 882,
      "na": 883,
      "Ġmaraq": 884,
      "dÄ±lar": 885,
      "maÄŁÄ±": 886,
      "Ã¼ndÉĻn": 887,
      "Ġondan": 888,
      "Ġolur": 889,
      "irdilÉĻr": 890,
      "liklÉĻ": 891,
      "ÉĻlib": 892,
      "ÅŁaÄŁÄ±": 893,
      "ĠeÅŁit": 894,
      "ĠyanÄ±na": 895,
      "dÉĻr": 896,
      "ansÄ±": 897,
      "Ã¶r": 898,
      "ĠqÄ±ÅŁ": 899,
      "ĠtÉĻh": 900,
      "Ġyay": 901,
      "Ġdeyildi": 902,
      "ĠkeÃ§ir": 903,
      "esab": 904,
      "Ġdon": 905,
      "ĠqÄ±r": 906,
      "masÄ±": 907,
      "mÉĻyi": 908,
      "Ġpo": 909,
      "ĠbaÅŁÄ±nÄ±": 910,
      "ĠgÉĻldi": 911,
      "ĠeÅŁi": 912,
      "Ġeyni": 913,
      "ac": 914,
      "sun": 915,
      "Ġdol": 916,
      "ĠmÉĻk": 917,
      "ÄŁÄ±na": 918,
      "ĠdÉĻyiÅŁ": 919,
      "Ġolub": 920,
      "Ä±nÄ±z": 921,
      "ĠÉĻla": 922,
      "ĠnÉĻh": 923,
      "ĠmÃ¼mk": 924,
      "ĠsÃ¶hbÉĻt": 925,
      "ĠmÉĻsÉĻlÉĻ": 926,
      "ĠmÃ¼mkÃ¼n": 927,
      "yr": 928,
      "ost": 929,
      "ÅŁam": 930,
      "dakÄ±": 931,
      "ÉĻtin": 932,
      "ĠgÃ¶tÃ¼r": 933,
      "Ġota": 934,
      "Ġas": 935,
      "Ġaya": 936,
      "ĠhansÄ±": 937,
      "Ġhesab": 938,
      "ÄŁu": 939,
      "Ġxat": 940,
      "miÅŁÉĻm": 941,
      "ĠsaÄŁ": 942,
      "Ġsif": 943,
      "Ġgey": 944,
      "ĠyÉĻq": 945,
      "mÉĻsi": 946,
      "ÉĻsindÉĻ": 947,
      "Ġpal": 948,
      "ÄŁÄ±l": 949,
      "Ġlap": 950,
      "iqq": 951,
      "Ġbundan": 952,
      "Ġpuaro": 953,
      "ĠvÉĻziyyÉĻt": 954,
      "ĠdÉĻrÉĻcÉĻ": 955,
      "ĠmÉĻkt": 956,
      "ĠyÉĻqin": 957,
      "ĠÉĻm": 958,
      "Ġoxu": 959,
      "Ġqey": 960,
      "lÉĻrinin": 961,
      "ĠfÉĻr": 962,
      "Ä±rdÄ±lar": 963,
      "Ġyux": 964,
      "ĠxÉĻbÉĻr": 965,
      "ud": 966,
      "Ġdin": 967,
      "ĠaÅŁaÄŁÄ±": 968,
      "Ġtop": 969,
      "Ġsay": 970,
      "ĠhÉĻqiq": 971,
      "Ġuzun": 972,
      "lÃ¼": 973,
      "ĠgÉĻlib": 974,
      "ÉĻss": 975,
      "layÄ±r": 976,
      "ĠyenidÉĻn": 977,
      "ĠlazÄ±mdÄ±r": 978,
      "ĠqÄ±ÅŁq": 979,
      "ot": 980,
      "ÉĻÅŁ": 981,
      "ĠboÅŁ": 982,
      "ÉĻsÉĻ": 983,
      "ĠxÃ¼s": 984,
      "ĠbilmÉĻz": 985,
      "luq": 986,
      "ĠaltÄ±nda": 987,
      "ĠdÉĻqiqÉĻ": 988,
      "ĠqÉĻf": 989,
      "laya": 990,
      "ÉĻst": 991,
      "ĠgÃ¶zlÉĻy": 992,
      "ĠdÃ¶n": 993,
      "ĠaxÅŁam": 994,
      "ĠaydÄ±n": 995,
      "Ġolaraq": 996,
      "Ġilk": 997,
      "ĠbaÄŁlÄ±": 998,
      "ĠhÉĻrÉĻkÉĻt": 999,
      "vÉĻ": 1000,
      "Ġdiqq": 1001,
      "ĠdÉĻy": 1002,
      "sin": 1003,
      "ĠÉĻr": 1004,
      "ĠbÉĻli": 1005,
      "larda": 1006,
      "ĠniyÉĻ": 1007,
      "ĠetmÉĻyÉĻ": 1008,
      "isi": 1009,
      "ĠdÃ¼ÅŁdÃ¼": 1010,
      "ĠyerdÉĻ": 1011,
      "ĠgÉĻlir": 1012,
      "ĠÉĻsas": 1013,
      "ĠmÉĻÅŁ": 1014,
      "Ġgetdi": 1015,
      "ĠqapÄ±": 1016,
      "fi": 1017,
      "mÄ±z": 1018,
      "Ġhara": 1019,
      "laca": 1020,
      "lÉĻrlÉĻ": 1021,
      "lib": 1022,
      "ataÅŁ": 1023,
      "ĠÅŁeyi": 1024,
      "ĠqaldÄ±r": 1025,
      "ĠÉĻsl": 1026,
      "ĠmÉĻhz": 1027,
      "ĠfyodoroviÃ§": 1028,
      "ĠifadÉĻ": 1029,
      "ĠyuxarÄ±": 1030,
      "ĠxÃ¼su": 1031,
      "vaÅŁ": 1032,
      "ĠÉĻk": 1033,
      "anÄ±m": 1034,
      "Ã§i": 1035,
      "ĠsÉĻb": 1036,
      "ĠsÄ±x": 1037,
      "ĠsÉĻhÉĻr": 1038,
      "ĠgÉĻlÉĻ": 1039,
      "Ġyad": 1040,
      "ibÉĻ": 1041,
      "larÄ±na": 1042,
      "landÄ±r": 1043,
      "Ä±lda": 1044,
      "ĠÃ¼stÃ¼ndÉĻ": 1045,
      "ĠhamÄ±sÄ±": 1046,
      "kov": 1047,
      "Ġor": 1048,
      "madan": 1049,
      "Ġpis": 1050,
      "ĠpÉĻnc": 1051,
      "ĠmÃ¼s": 1052,
      "Â».": 1053,
      "ĠqarÅŁÄ±sÄ±nda": 1054,
      "ila": 1055,
      "mÉĻn": 1056,
      "Ġ(": 1057,
      "Ġduy": 1058,
      "ĠiÅŁÄ±": 1059,
      "ÄŁun": 1060,
      "ĠmÃ¼d": 1061,
      "ĠsÉĻni": 1062,
      "ĠbÃ¶l": 1063,
      "sÄ±nÄ±z": 1064,
      "mirdi": 1065,
      "anlÄ±": 1066,
      "ĠqÄ±": 1067,
      "ĠkÃ¼": 1068,
      "ĠÃ§ÉĻtin": 1069,
      "ÉĻsini": 1070,
      "Ġsah": 1071,
      "ĠmÃ¼q": 1072,
      "Ã¼bh": 1073,
      "cÉĻyÉĻm": 1074,
      "ĠbilmirÉĻm": 1075,
      "Ġolacaq": 1076,
      "ĠsadÉĻcÉĻ": 1077,
      "ĠÉĻtraf": 1078,
      "ĠdÉĻhÅŁ": 1079,
      "arÉĻt": 1080,
      "ĠqÉĻt": 1081,
      "Ġtel": 1082,
      "lÉĻrdÉĻn": 1083,
      "lÉĻrindÉĻn": 1084,
      "ÉĻsinÉĻ": 1085,
      "ĠÉĻli": 1086,
      "ĠmÃ¼t": 1087,
      "ĠbeÅŁ": 1088,
      "layÄ±b": 1089,
      "tor": 1090,
      "ari": 1091,
      "Ġoy": 1092,
      "ĠsÉĻh": 1093,
      "ĠÃ§ar": 1094,
      "asÄ±na": 1095,
      "ĠsÉĻnÉĻ": 1096,
      "Ġyuxu": 1097,
      "tir": 1098,
      "uma": 1099,
      "Ġdost": 1100,
      "Ã§ik": 1101,
      "Ġqon": 1102,
      "Ġmin": 1103,
      "ĠmÃ¶": 1104,
      "Ġata": 1105,
      "ĠyÃ¼k": 1106,
      "Ġtan": 1107,
      "lÄ±b": 1108,
      "irdim": 1109,
      "ĠiÃ§indÉĻ": 1110,
      "ĠaÃ§Ä±q": 1111,
      "ĠÉĻks": 1112,
      "lo": 1113,
      "mer": 1114,
      "Ġdur": 1115,
      "ĠqÉĻz": 1116,
      "ĠmÉĻl": 1117,
      "Ġyum": 1118,
      "ĠnataÅŁ": 1119,
      "ĠÃ¼mi": 1120,
      "Ġfer": 1121,
      "ÉĻcÉĻy": 1122,
      "usu": 1123,
      "ĠrazÄ±": 1124,
      "ĠÉĻzab": 1125,
      "yanÄ±n": 1126,
      "Ġov": 1127,
      "Ġsoy": 1128,
      "Ã¶z": 1129,
      "Ġqol": 1130,
      "Ġhav": 1131,
      "larÄ±nda": 1132,
      "ÉĻsÉĻn": 1133,
      "ĠÅŁÃ¼bh": 1134,
      "ĠzÉĻr": 1135,
      "Ġqoca": 1136,
      "ĠnÉĻzÉĻr": 1137,
      "ĠbÉĻzi": 1138,
      "ĠnÉĻhayÉĻt": 1139,
      "ĠxatÄ±r": 1140,
      "ĠhÉĻqiqÉĻt": 1141,
      "em": 1142,
      "yÃ¶": 1143,
      "Ġmat": 1144,
      "ĠyaÅŁa": 1145,
      "Ġsizi": 1146,
      "ĠdÃ¶y": 1147,
      "Ġhadi": 1148,
      "ĠdigÉĻr": 1149,
      "Ġmad": 1150,
      "ĠÃ¼zÉĻrindÉĻ": 1151,
      "Ġpita": 1152,
      "ĠaÄŁac": 1153,
      "ĠÅŁÉĻkildÉĻ": 1154,
      "ĠmÉĻktub": 1155,
      "ĠmÃ¼syÃ¶": 1156,
      "rar": 1157,
      "ton": 1158,
      "ÅŁi": 1159,
      "Ġqraf": 1160,
      "Ġyet": 1161,
      "Ġkol": 1162,
      "Ã¼nÃ¼n": 1163,
      "Ġkil": 1164,
      "ĠkiÃ§ik": 1165,
      "ĠdaÅŁ": 1166,
      "ĠgÃ¶zlÉĻri": 1167,
      "ahiÅŁ": 1168,
      "ĠÃ¼stÃ¼nÉĻ": 1169,
      "ĠistÉĻyir": 1170,
      "ĠarxasÄ±nda": 1171,
      "ĠÃ¼mid": 1172,
      "Ġqan": 1173,
      "Ġac": 1174,
      "lÉĻrindÉĻ": 1175,
      "ert": 1176,
      "ÉĻlb": 1177,
      "ĠÉĻh": 1178,
      "ĠbaxÄ±ÅŁ": 1179,
      "ĠdÃ¶r": 1180,
      "ĠmÉĻq": 1181,
      "ĠoÄŁlan": 1182,
      "oks": 1183,
      "ĠyaxÄ±nlaÅŁ": 1184,
      "ĠxÃ¼susi": 1185,
      "nÉĻ": 1186,
      "oz": 1187,
      "vi": 1188,
      "ÉĻx": 1189,
      "ÉĻvv": 1190,
      "Ġnif": 1191,
      "Ġolsa": 1192,
      "Ġolsun": 1193,
      "asÄ±nÄ±n": 1194,
      "larÄ±ndan": 1195,
      "caÄŁ": 1196,
      "ĠgecÉĻ": 1197,
      "Ġuzan": 1198,
      "ÉĻmiyyÉĻt": 1199,
      "ĠbÉĻrk": 1200,
      "ĠmÃ¼ddÉĻt": 1201,
      "bah": 1202,
      "kÉĻm": 1203,
      "man": 1204,
      "ola": 1205,
      "Ä±Ã§": 1206,
      "ĠqÉĻb": 1207,
      "Ġaid": 1208,
      "ÉĻrÉĻm": 1209,
      "Ġvan": 1210,
      "lamaq": 1211,
      "mÄ±ÅŁam": 1212,
      "likdÉĻ": 1213,
      "ĠÉĻlini": 1214,
      "ÉĻcc": 1215,
      "ĠaÄŁÄ±r": 1216,
      "ĠdÃ¶v": 1217,
      "Ġuzaq": 1218,
      "Ġqoydu": 1219,
      "merd": 1220,
      "zÉĻ": 1221,
      "Ġgeri": 1222,
      "Ġab": 1223,
      "ĠtÉĻz": 1224,
      "dÉĻs": 1225,
      "ĠnÉĻsÉĻ": 1226,
      "ÉĻyyÉĻn": 1227,
      "ent": 1228,
      "ĠbilirÉĻm": 1229,
      "uÅŁen": 1230,
      "Ġbura": 1231,
      "Ġgedir": 1232,
      "ĠbilÉĻ": 1233,
      "ĠdÃ¼ÅŁÃ¼ndÃ¼": 1234,
      "ĠgÃ¶rÃ¼nÃ¼r": 1235,
      "bÉĻxt": 1236,
      "ĠdÃ¼nya": 1237,
      "Ġqulaq": 1238,
      "Ġmitya": 1239,
      "mu": 1240,
      "ran": 1241,
      "dilÉĻr": 1242,
      "ĠgÉĻz": 1243,
      "ĠhÉĻy": 1244,
      "daq": 1245,
      "Ġedib": 1246,
      "Ġtam": 1247,
      "lÉĻrim": 1248,
      "asÄ±nÄ±": 1249,
      "Ġqara": 1250,
      "siya": 1251,
      "ĠbizÉĻ": 1252,
      "ĠgÃ¼nah": 1253,
      "ĠgedÉĻ": 1254,
      "Ġfikr": 1255,
      "Ġqorxu": 1256,
      "ĠdÃ¼nÉĻn": 1257,
      "ĠdÃ¶rd": 1258,
      "ĠnifrÉĻt": 1259,
      "af": 1260,
      "bur": 1261,
      "ĠbÉĻdÉĻn": 1262,
      "lÉĻrdÉĻ": 1263,
      "miyyÉĻt": 1264,
      "uram": 1265,
      "ole": 1266,
      "ĠmÃ¼h": 1267,
      "tab": 1268,
      "ĠgÃ¶zlÉĻ": 1269,
      "ĠqardaÅŁ": 1270,
      "ĠdÃ¶ÅŁ": 1271,
      "lÉĻÅŁdir": 1272,
      "ĠolduÄŁu": 1273,
      "Ġpart": 1274,
      "ĠbÉĻzÉĻn": 1275,
      "aÄŁÄ±r": 1276,
      "ĠqruÅŁen": 1277,
      "ÉĻccÃ¼b": 1278,
      "min": 1279,
      "nya": 1280,
      "re": 1281,
      "Ġ\"": 1282,
      "irlÉĻr": 1283,
      "Ġmar": 1284,
      "ĠgÃ¼nÃ¼": 1285,
      "ĠaÄŁÄ±l": 1286,
      "Ġbirin": 1287,
      "Ġbalaca": 1288,
      "yacaq": 1289,
      "Ġolmaq": 1290,
      "ĠÅŁÉĻhÉĻr": 1291,
      "ĠxÉĻr": 1292,
      "ĠxahiÅŁ": 1293,
      "ordan": 1294,
      "Ġuc": 1295,
      "lÉĻndir": 1296,
      "Ä±ldÄ±": 1297,
      "ĠtÉĻÉĻccÃ¼b": 1298,
      "Ġotaq": 1299,
      "ĠtÉĻrp": 1300,
      "ef": 1301,
      "Ġdal": 1302,
      "Ġyara": 1303,
      "Ġikin": 1304,
      "mÉĻmiÅŁdi": 1305,
      "Ġbac": 1306,
      "lÄ±ÄŁÄ±": 1307,
      "ray": 1308,
      "ĠcÉĻh": 1309,
      "Ġetir": 1310,
      "ĠrÉĻng": 1311,
      "ĠistÉĻm": 1312,
      "Ġyoxsa": 1313,
      "ĠaÄŁz": 1314,
      "ĠÃ¶lÃ¼m": 1315,
      "ĠtÉĻsÉĻvv": 1316,
      "mÃ¼ÅŁdÃ¼": 1317,
      "Ġsual": 1318,
      "Ġmeydan": 1319,
      "Ġoyun": 1320,
      "ĠtÉĻsÉĻvvÃ¼r": 1321,
      "bÉĻr": 1322,
      "ft": 1323,
      "sÉĻk": 1324,
      "Ġ-": 1325,
      "ĠbÉĻs": 1326,
      "ĠmaÅŁ": 1327,
      "Ġmist": 1328,
      "lam": 1329,
      "madÄ±": 1330,
      "ĠÃ¶yr": 1331,
      "Ġarv": 1332,
      "ĠparÃ§": 1333,
      "Ġsevin": 1334,
      "mÉĻyib": 1335,
      "ĠÉĻmin": 1336,
      "ĠfÉĻrq": 1337,
      "ĠqÄ±ÅŁqÄ±r": 1338,
      "ilÉĻn": 1339,
      "uya": 1340,
      "Ġdar": 1341,
      "ĠyÃ¼z": 1342,
      "ĠkaÄŁÄ±": 1343,
      "ÄŁul": 1344,
      "ĠolmuÅŁdu": 1345,
      "Ġcan": 1346,
      "ĠxanÄ±m": 1347,
      "asÄ±ndan": 1348,
      "ĠÃ¶zÃ¼nÉĻ": 1349,
      "Ġanam": 1350,
      "ĠmÃ¼ÉĻyyÉĻn": 1351,
      "Ġrob": 1352,
      "Ä±ltÄ±": 1353,
      "Ġetdiy": 1354,
      "Ġrah": 1355,
      "Ġdivar": 1356,
      "ĠsÃ¶ylÉĻdi": 1357,
      "ĠgÃ¼lÃ¼m": 1358,
      "ĠaddÄ±m": 1359,
      "ĠqÉĻribÉĻ": 1360,
      "loviÃ§": 1361,
      "rt": 1362,
      "za": 1363,
      "Ä±lan": 1364,
      "anlÄ±q": 1365,
      "diq": 1366,
      "Ġknya": 1367,
      "Ġen": 1368,
      "ĠtÉĻbi": 1369,
      "ÉĻstÉĻ": 1370,
      "Ġcid": 1371,
      "ĠbaÅŁÄ±": 1372,
      "Ġgec": 1373,
      "ĠtÉĻmiz": 1374,
      "Ġonlara": 1375,
      "ĠÃ¼stÉĻ": 1376,
      "Ġmak": 1377,
      "Ġketrin": 1378,
      "ĠnÉĻfÉĻr": 1379,
      "Ġpaltar": 1380,
      "ĠdÉĻhÅŁÉĻtli": 1381,
      "ĠhadisÉĻ": 1382,
      "Ġmister": 1383,
      "acaq": 1384,
      "klÉĻri": 1385,
      "sÄ±n": 1386,
      "ant": 1387,
      "Ġsil": 1388,
      "Ġid": 1389,
      "Ġiy": 1390,
      "ÄŁunu": 1391,
      "ĠgÃ¶rÃ¼ÅŁ": 1392,
      "Ġyeri": 1393,
      "ĠÃ§Ä±xdÄ±": 1394,
      "ĠaÄŁrÄ±": 1395,
      "Ġburax": 1396,
      "ĠaxÄ±r": 1397,
      "ĠadamÄ±n": 1398,
      "ĠtÉĻkcÉĻ": 1399,
      "ĠtÉĻkrar": 1400,
      "Ġstol": 1401,
      "ĠsifÉĻt": 1402,
      "ĠÉĻslindÉĻ": 1403,
      "ĠkÃ¼Ã§": 1404,
      "ĠmÃ¶h": 1405,
      "Ġciddi": 1406,
      "dÉĻrÉĻk": 1407,
      "Ġ1": 1408,
      "ĠlÉĻ": 1409,
      "Ġdil": 1410,
      "ĠsÉĻsi": 1411,
      "Ġmas": 1412,
      "ĠmeÅŁ": 1413,
      "Ġkam": 1414,
      "Ġkap": 1415,
      "ĠÃ§iy": 1416,
      "liyi": 1417,
      "alan": 1418,
      "ĠÅŁÉĻx": 1419,
      "Ġcordan": 1420,
      "ort": 1421,
      "Ġbilirdi": 1422,
      "Ġanda": 1423,
      "Ġonunla": 1424,
      "layÄ±rdÄ±": 1425,
      "ĠtÉĻsdiq": 1426,
      "apole": 1427,
      "Ä±ÄŁÄ±r": 1428,
      "Ġizah": 1429,
      "ĠsoruÅŁdu": 1430,
      "ĠcinayÉĻt": 1431,
      "ĠtÉĻhlÃ¼k": 1432,
      "ĠÃ§arp": 1433,
      "Ġmadmaz": 1434,
      "ĠÃ¶yrÉĻn": 1435,
      "baÅŁ": 1436,
      "dr": 1437,
      "ep": 1438,
      "edi": 1439,
      "Ġunu": 1440,
      "Ã¼mÉĻ": 1441,
      "andan": 1442,
      "ĠgÉĻnc": 1443,
      "Ġyel": 1444,
      "ÄŁÄ±nda": 1445,
      "unda": 1446,
      "dÉĻki": 1447,
      "mit": 1448,
      "ĠbircÉĻ": 1449,
      "ĠnÃ¶v": 1450,
      "Ġbay": 1451,
      "ĠdÉĻli": 1452,
      "enin": 1453,
      "Ġqala": 1454,
      "lÉĻndi": 1455,
      "ĠtÉĻsir": 1456,
      "ĠbaÄŁÄ±ÅŁ": 1457,
      "Ġtamam": 1458,
      "Ġheyvanlar": 1459,
      "ĠirÉĻli": 1460,
      "ĠqayÄ±t": 1461,
      "ĠÉĻlavÉĻ": 1462,
      "ĠiÅŁÄ±q": 1463,
      "caÄŁam": 1464,
      "Ġrobert": 1465,
      "Ġmadmazel": 1466,
      "gi": 1467,
      "gin": 1468,
      "sÄ±na": 1469,
      "Ġbor": 1470,
      "Ġboks": 1471,
      "Ġdu": 1472,
      "Ġsn": 1473,
      "Ġsmerd": 1474,
      "ĠyÉĻni": 1475,
      "undan": 1476,
      "Ġedil": 1477,
      "mÉĻmiÅŁ": 1478,
      "Ä±rlar": 1479,
      "Ġnapole": 1480,
      "ÉĻkk": 1481,
      "ĠÉĻmÉĻ": 1482,
      "landÄ±": 1483,
      "ĠyerinÉĻ": 1484,
      "ĠkÃ¶r": 1485,
      "ĠkÃ¶mÉĻk": 1486,
      "ĠiÃ§ÉĻri": 1487,
      "ĠistÉĻyirÉĻm": 1488,
      "ĠgÃ¶rÃ¼nÃ¼rdÃ¼": 1489,
      "ĠyaÅŁay": 1490,
      "ĠÃ¶zÃ¼mÃ¼": 1491,
      "Ġdonuz": 1492,
      "Ġsmerdya": 1493,
      "bu": 1494,
      "mÄ±rdÄ±": 1495,
      "anÉĻ": 1496,
      "Ġser": 1497,
      "Ġmah": 1498,
      "ĠgÉĻrÉĻk": 1499,
      "Ġah": 1500,
      "Ġav": 1501,
      "Ġhay": 1502,
      "Ġimk": 1503,
      "dadÄ±r": 1504,
      "lama": 1505,
      "Ġtox": 1506,
      "Ġtax": 1507,
      "ĠÃ§aÄŁÄ±r": 1508,
      "lim": 1509,
      "ildi": 1510,
      "lÄ±dÄ±r": 1511,
      "ĠetmiÅŁdi": 1512,
      "dÄ±rdÄ±": 1513,
      "Ġsabah": 1514,
      "Ġverir": 1515,
      "caÄŁÄ±": 1516,
      "layÄ±ram": 1517,
      "tiya": 1518,
      "lÄ±qla": 1519,
      "ĠtÉĻÅŁ": 1520,
      "ĠolardÄ±": 1521,
      "ĠÉĻvvÉĻlki": 1522,
      "ĠÉĻvvÉĻlcÉĻ": 1523,
      "Ġbilmir": 1524,
      "Ġyaran": 1525,
      "Ġitir": 1526,
      "Ġoturub": 1527,
      "Ġbununla": 1528,
      "Ġboyu": 1529,
      "Ġqeyri": 1530,
      "ĠsÉĻbÉĻb": 1531,
      "Ġikinci": 1532,
      "Ġbacar": 1533,
      "Ġkamer": 1534,
      "ĠkÃ¶rp": 1535,
      "Ġsmerdyakov": 1536,
      "ali": 1537,
      "ic": 1538,
      "yla": 1539,
      "yon": 1540,
      "Ã¼vv": 1541,
      "Ġbo": 1542,
      "Ġsus": 1543,
      "ĠmÃ¶v": 1544,
      "ĠgÃ¼m": 1545,
      "ÄŁÄ±ndan": 1546,
      "laÅŁÄ±": 1547,
      "Ġel": 1548,
      "ĠtÉĻn": 1549,
      "ĠbirlikdÉĻ": 1550,
      "eyn": 1551,
      "Ġnar": 1552,
      "Ġnay": 1553,
      "ÉĻsinin": 1554,
      "Ġpav": 1555,
      "ĠÅŁÉĻr": 1556,
      "Ġqaz": 1557,
      "ĠdeyirÉĻm": 1558,
      "ĠdeyÉĻsÉĻn": 1559,
      "ĠuÃ§": 1560,
      "Ġalmaq": 1561,
      "larÄ±m": 1562,
      "ĠrÉĻh": 1563,
      "Ã¼nÃ¼z": 1564,
      "ĠÉĻlindÉĻ": 1565,
      "ĠqÄ±zÄ±n": 1566,
      "ĠÃ§ÉĻkdi": 1567,
      "Ġkatrin": 1568,
      "ĠdoÄŁrudan": 1569,
      "Ġdolu": 1570,
      "ĠdÉĻrÉĻcÉĻdÉĻ": 1571,
      "ĠqÉĻfil": 1572,
      "ĠqÉĻbul": 1573,
      "Ġbirinci": 1574,
      "ĠpavloviÃ§": 1575,
      "ala": 1576,
      "ge": 1577,
      "mirÉĻm": 1578,
      "vÉĻz": 1579,
      "Ã¼f": 1580,
      "Ġbit": 1581,
      "ĠqÉĻlb": 1582,
      "ĠqÃ¼vv": 1583,
      "ĠhÉĻd": 1584,
      "Ã¼nc": 1585,
      "Ġkitab": 1586,
      "illÉĻ": 1587,
      "Ġbab": 1588,
      "ĠÃ¼mu": 1589,
      "ĠyaÅŁÄ±": 1590,
      "ĠÉĻvÉĻz": 1591,
      "imin": 1592,
      "ĠalÃ§": 1593,
      "dÃ¼y": 1594,
      "ĠzÉĻng": 1595,
      "Ġetdiyi": 1596,
      "mÄ±ÅŁdÄ±lar": 1597,
      "ĠkeÃ§di": 1598,
      "ĠsÃ¶zlÉĻri": 1599,
      "ĠoÄŁl": 1600,
      "ĠÃ¼rÉĻyi": 1601,
      "ĠtÉĻlÉĻs": 1602,
      "Ġehtiyat": 1603,
      "ĠpÉĻncÉĻr": 1604,
      "ĠtanrÄ±": 1605,
      "ĠhÉĻyÉĻc": 1606,
      "ias": 1607,
      "mÃ¼r": 1608,
      "qab": 1609,
      "suz": 1610,
      "xan": 1611,
      "Ġsir": 1612,
      "Ġqul": 1613,
      "Ġmiss": 1614,
      "Ġtit": 1615,
      "Ġdam": 1616,
      "ĠyaÄŁ": 1617,
      "ĠyavaÅŁ": 1618,
      "Ġcib": 1619,
      "ĠetmÉĻ": 1620,
      "Ġru": 1621,
      "ĠbaxÄ±rdÄ±": 1622,
      "Ġolduq": 1623,
      "cÉĻyini": 1624,
      "Ġbilmirdi": 1625,
      "ĠistÉĻyirdi": 1626,
      "Ġqayda": 1627,
      "ĠtezliklÉĻ": 1628,
      "Ġkimin": 1629,
      "Ġqurtar": 1630,
      "ĠÃ¼rÉĻk": 1631,
      "ĠhansÄ±sa": 1632,
      "Ġsahib": 1633,
      "ĠyÃ¼ksÉĻk": 1634,
      "ĠqÉĻzÉĻb": 1635,
      "Ġabid": 1636,
      "Ġknyaz": 1637,
      "ĠtÉĻbii": 1638,
      "bar": 1639,
      "cu": 1640,
      "imiz": 1641,
      "mÄ±r": 1642,
      "sÉĻy": 1643,
      "tez": 1644,
      "Ġber": 1645,
      "Ġder": 1646,
      "Ġdiz": 1647,
      "lÉĻq": 1648,
      "Ã§u": 1649,
      "Ġsin": 1650,
      "Ã¶n": 1651,
      "Ġman": 1652,
      "ÄŁÄ±nÄ±n": 1653,
      "ĠedÉĻrÉĻk": 1654,
      "ĠÃ§Ã¶r": 1655,
      "ÉĻtdÉĻ": 1656,
      "ĠkiÅŁi": 1657,
      "erik": 1658,
      "yam": 1659,
      "Ġpab": 1660,
      "ĠsaÃ§": 1661,
      "ĠbilmÉĻ": 1662,
      "ĠarasÄ±nda": 1663,
      "ĠverÉĻn": 1664,
      "ÉĻddÉĻs": 1665,
      "ĠÅŁeylÉĻr": 1666,
      "Ä±lmÄ±ÅŁ": 1667,
      "Ġbunlar": 1668,
      "ĠtÉĻq": 1669,
      "Ġoturdu": 1670,
      "ĠheyrÉĻt": 1671,
      "ĠedÉĻcÉĻk": 1672,
      "ĠsÃ¶ylÉĻ": 1673,
      "birinÉĻ": 1674,
      "ĠtÉĻlÉĻb": 1675,
      "ĠoxÅŁ": 1676,
      "masÄ±na": 1677,
      "ĠbÃ¶lg": 1678,
      "ĠmÃ¼tlÉĻq": 1679,
      "Ġaidin": 1680,
      "ĠkaÄŁÄ±z": 1681,
      "Ġnayton": 1682,
      "gÃ¼l": 1683,
      "ÉĻlÉĻri": 1684,
      "ÉĻif": 1685,
      "Ã¼q": 1686,
      "ĠaÅŁ": 1687,
      "Ġadi": 1688,
      "ĠkÃ¼r": 1689,
      "ĠtÉĻb": 1690,
      "ĠolmuÅŁ": 1691,
      "Ġdax": 1692,
      "ĠÃ¶t": 1693,
      "ĠÅŁÃ¼ÅŁ": 1694,
      "ÄŁÄ±m": 1695,
      "Ġdeyirdi": 1696,
      "sÉĻdi": 1697,
      "ĠzÉĻif": 1698,
      "iyanÄ±n": 1699,
      "ĠyerindÉĻ": 1700,
      "Ä±mÄ±z": 1701,
      "Ä±lmÄ±ÅŁdÄ±": 1702,
      "ĠgÉĻlirdi": 1703,
      "ĠaÄŁl": 1704,
      "ĠayrÄ±": 1705,
      "ĠyoldaÅŁ": 1706,
      "ĠqapÄ±nÄ±": 1707,
      "ĠÃ¼rÉĻy": 1708,
      "Ġehtiya": 1709,
      "Ġyataq": 1710,
      "Ġpolis": 1711,
      "ĠmÉĻÅŁÄŁul": 1712,
      "Ġqonaq": 1713,
      "Ġmatias": 1714,
      "ĠxÉĻrac": 1715,
      "ili": 1716,
      "oub": 1717,
      "rat": 1718,
      "son": 1719,
      "Ã¼st": 1720,
      "ĠsÉĻ": 1721,
      "ĠmÉĻc": 1722,
      "Ġis": 1723,
      "lah": 1724,
      "ĠtanÄ±": 1725,
      "ĠÃ¶p": 1726,
      "Ġbudur": 1727,
      "Ġuy": 1728,
      "ĠgÃ¶zlÉĻrini": 1729,
      "iyyÉĻn": 1730,
      "lanmÄ±ÅŁ": 1731,
      "Ġqalan": 1732,
      "layan": 1733,
      "Ġgedib": 1734,
      "ĠvaxtÄ±": 1735,
      "Ġyalan": 1736,
      "dÄ±ÄŁÄ±m": 1737,
      "ĠbilÉĻrdi": 1738,
      "mÉĻyÉĻn": 1739,
      "ĠtÉĻrz": 1740,
      "ĠyemÉĻk": 1741,
      "ĠqÉĻrar": 1742,
      "ĠgÃ¼clÃ¼": 1743,
      "ilÉĻm": 1744,
      "Ġxeyli": 1745,
      "ĠÃ§evr": 1746,
      "ĠÃ§evir": 1747,
      "ĠayaÄŁa": 1748,
      "ĠqÉĻtiyyÉĻn": 1749,
      "Ġsoyuq": 1750,
      "ĠÉĻhÉĻmiyyÉĻt": 1751,
      "Ġsnoub": 1752,
      "Ġsnoubol": 1753,
      "gÃ¼n": 1754,
      "oq": 1755,
      "ardÄ±": 1756,
      "Ġdik": 1757,
      "Ġoyn": 1758,
      "Ġsol": 1759,
      "Ġmil": 1760,
      "ĠmÃ¼r": 1761,
      "Ġmet": 1762,
      "ĠedÉĻr": 1763,
      "Ġtor": 1764,
      "lif": 1765,
      "miÃ§": 1766,
      "ĠmÉĻndÉĻn": 1767,
      "ĠgÃ¶n": 1768,
      "amÄ±": 1769,
      "ĠÃ¶rt": 1770,
      "Ġyap": 1771,
      "ĠyazÄ±": 1772,
      "ĠÅŁÉĻn": 1773,
      "ĠxÉĻstÉĻ": 1774,
      "isindÉĻ": 1775,
      "caÄŁÄ±nÄ±": 1776,
      "iylÉĻ": 1777,
      "ahat": 1778,
      "Ġolmasa": 1779,
      "Ġolmayan": 1780,
      "Ġaxtar": 1781,
      "ĠkeÃ§miÅŁ": 1782,
      "ifadÉĻ": 1783,
      "Ġpartiya": 1784,
      "ĠiÃ§ÉĻr": 1785,
      "ĠmÉĻhkÉĻ": 1786,
      "Ġbarmaq": 1787,
      "Ġzamanda": 1788,
      "ĠÉĻziz": 1789,
      "ĠxoÅŁbÉĻxt": 1790,
      "Ġiri": 1791,
      "ĠkÉĻnar": 1792,
      "ĠeÅŁidil": 1793,
      "ĠdiqqÉĻtlÉĻ": 1794,
      "mÄ±zÄ±": 1795,
      "ĠgÉĻlÉĻcÉĻk": 1796,
      "ĠhÉĻqiqÉĻtÉĻn": 1797,
      "Ġyetir": 1798,
      "ĠqruÅŁenka": 1799,
      "Ġetiraf": 1800,
      "Ġnarahat": 1801,
      "elÉĻ": 1802,
      "mr": 1803,
      "paq": 1804,
      "res": 1805,
      "sÉĻm": 1806,
      "say": 1807,
      "terin": 1808,
      "ĠbÉĻn": 1809,
      "ĠdÉĻst": 1810,
      "ĠsarÄ±": 1811,
      "ĠmÃ¼n": 1812,
      "Ġmeh": 1813,
      "ĠyÃ¼n": 1814,
      "Ġkl": 1815,
      "mal": 1816,
      "Ġtab": 1817,
      "ĠtanÄ±ÅŁ": 1818,
      "liz": 1819,
      "Ġdaim": 1820,
      "ĠpÉĻr": 1821,
      "lÄ±ÄŁa": 1822,
      "Ġcu": 1823,
      "Ġqad": 1824,
      "ĠÃ§oxdan": 1825,
      "ulu": 1826,
      "ĠqaranlÄ±q": 1827,
      "ĠrÉĻq": 1828,
      "ĠÉĻllÉĻrini": 1829,
      "Ġbizi": 1830,
      "Ġolmaz": 1831,
      "ĠolmasÄ±": 1832,
      "ĠiÅŁar": 1833,
      "ĠiÅŁlÉĻ": 1834,
      "Ġadamlar": 1835,
      "ĠtÉĻÉĻss": 1836,
      "Ġhaki": 1837,
      "lÉĻyir": 1838,
      "ĠevÉĻ": 1839,
      "ĠbilÉĻrÉĻm": 1840,
      "ĠÉĻylÉĻÅŁ": 1841,
      "ĠqÉĻflÉĻt": 1842,
      "Ġharada": 1843,
      "umat": 1844,
      "Ġferma": 1845,
      "ÉĻcÉĻyÉĻm": 1846,
      "ĠhaymiÃ§": 1847,
      "ĠyÃ¼ngÃ¼l": 1848,
      "iki": 1849,
      "lin": 1850,
      "omi": 1851,
      "yÄ±rdÄ±": 1852,
      "ÅŁÄ±r": 1853,
      "Ġdmit": 1854,
      "Ġsar": 1855,
      "Ġqov": 1856,
      "ĠmÉĻt": 1857,
      "Ġguya": 1858,
      "Ġasan": 1859,
      "Ġyey": 1860,
      "ĠyarÄ±": 1861,
      "ÉĻrdi": 1862,
      "Ġib": 1863,
      "ÄŁan": 1864,
      "ĠÃ§Ä±ÄŁÄ±r": 1865,
      "Ä±ra": 1866,
      "ĠnÉĻti": 1867,
      "yavaÅŁ": 1868,
      "ĠpeÅŁ": 1869,
      "ĠbaÅŁla": 1870,
      "ĠalÄ±n": 1871,
      "ĠmÃ¼da": 1872,
      "ĠvermÉĻk": 1873,
      "ĠdÃ¼ÅŁÃ¼r": 1874,
      "ĠistifadÉĻ": 1875,
      "ĠÅŁeydir": 1876,
      "ĠÃ¼zÃ¼ndÉĻ": 1877,
      "ĠtÉĻx": 1878,
      "ĠdÉĻrin": 1879,
      "ĠkÃ¶h": 1880,
      "liyyÉĻt": 1881,
      "ĠhamÄ±sÄ±nÄ±": 1882,
      "ĠmÉĻsÉĻlÉĻn": 1883,
      "ĠyarÄ±m": 1884,
      "ĠdÃ¼zÉĻl": 1885,
      "ĠsakitcÉĻ": 1886,
      "ĠgizlÉĻt": 1887,
      "mayaraq": 1888,
      "ĠgÉĻlÉĻndÉĻ": 1889,
      "ĠmÃ¼qÉĻddÉĻs": 1890,
      "ĠmÉĻlumat": 1891,
      "ĠÅŁÃ¼bhÉĻ": 1892,
      "ĠmÃ¼har": 1893,
      "ĠdÃ¶ÅŁÉĻ": 1894,
      "ĠmÃ¶hkÉĻm": 1895,
      "Ġkatrina": 1896,
      "Ġpablo": 1897,
      "ĠyapÄ±ÅŁ": 1898,
      "ĠqÉĻflÉĻtÉĻn": 1899,
      "Ġdmitri": 1900,
      "bi": 1901,
      "bray": 1902,
      "kt": 1903,
      "mur": 1904,
      "tin": 1905,
      "ĠbÉĻd": 1906,
      "ĠdiÅŁ": 1907,
      "ÉĻnab": 1908,
      "ĠsÉĻf": 1909,
      "Ġala": 1910,
      "ĠÃ§Ä±r": 1911,
      "ÉĻtini": 1912,
      "Ġna": 1913,
      "ĠnÉĻyÉĻ": 1914,
      "Ġpit": 1915,
      "ĠÅŁÃ¼": 1916,
      "ĠdemÉĻli": 1917,
      "yiq": 1918,
      "ĠgÃ¶zlÉĻn": 1919,
      "cadan": 1920,
      "ĠqaldÄ±": 1921,
      "ĠgÉĻlmiÅŁdi": 1922,
      "Ġetdim": 1923,
      "ĠqÄ±zÄ±": 1924,
      "ĠsÃ¶zÃ¼nÃ¼": 1925,
      "diyim": 1926,
      "ĠdÃ¼ÅŁÃ¼nÃ¼rÉĻm": 1927,
      "cÉĻyi": 1928,
      "Ġcavan": 1929,
      "mÉĻyin": 1930,
      "ĠqalxdÄ±": 1931,
      "mÉĻsini": 1932,
      "ĠdoÄŁrudur": 1933,
      "Ġxeyr": 1934,
      "Ġketterin": 1935,
      "mayÄ±b": 1936,
      "Ġqeyd": 1937,
      "ĠpÉĻncÉĻrÉĻ": 1938,
      "ĠnataÅŁa": 1939,
      "Ġhava": 1940,
      "Ġbokser": 1941,
      "ĠrÉĻhbÉĻr": 1942,
      "Ġruh": 1943,
      "Ġehtiyac": 1944,
      "Ġketterinq": 1945,
      "nÄ±": 1946,
      "vir": 1947,
      "val": 1948,
      "yev": 1949,
      "Ġbal": 1950,
      "ĠdÄ±r": 1951,
      "Ġsur": 1952,
      "ĠqÉĻ": 1953,
      "ĠmÃ¼ÅŁ": 1954,
      "ĠhÉĻk": 1955,
      "Ġhis": 1956,
      "ĠhÃ¼c": 1957,
      "Ġic": 1958,
      "Ġkom": 1959,
      "daÅŁÄ±": 1960,
      "ĠÃ§ay": 1961,
      "ÉĻsiz": 1962,
      "ĠÃ¶n": 1963,
      "Ġetdir": 1964,
      "ĠxÄ±r": 1965,
      "asib": 1966,
      "ĠgÃ¶rÃ¼rÉĻm": 1967,
      "ĠuÄŁ": 1968,
      "indÉĻki": 1969,
      "ayÄ±": 1970,
      "Ġisteh": 1971,
      "ĠyerindÉĻn": 1972,
      "ĠÃ¼zÃ¼nÃ¼": 1973,
      "Ġdedim": 1974,
      "Ġaxmaq": 1975,
      "ĠtÉĻp": 1976,
      "Ġazad": 1977,
      "Ġdodaq": 1978,
      "Ġtutub": 1979,
      "Ġgizli": 1980,
      "ĠmÉĻrh": 1981,
      "ĠÃ¼zÉĻrinÉĻ": 1982,
      "ĠkÉĻnara": 1983,
      "Ġoxuy": 1984,
      "ĠrazÄ±laÅŁ": 1985,
      "Ġtoxun": 1986,
      "ĠÃ§Ã¶rÉĻk": 1987,
      "ĠoxÅŁay": 1988,
      "ĠaÄŁlÄ±na": 1989,
      "ĠtÉĻrzdÉĻ": 1990,
      "Ġsnouboll": 1991,
      "ĠgÃ¶ndÉĻr": 1992,
      "ĠiÃ§ÉĻrisindÉĻ": 1993,
      "ĠmÃ¼nasib": 1994,
      "ĠkÃ¶hnÉĻ": 1995,
      "aÃ§": 1996,
      "cÃ¼": 1997,
      "ham": 1998,
      "ima": 1999,
      "kcÉĻ": 2000,
      "of": 2001,
      "rib": 2002,
      "Ã¼ma": 2003,
      "ĠbÃ¼r": 2004,
      "ÉĻnn": 2005,
      "Ġhol": 2006,
      "Ġkon": 2007,
      "Ġvas": 2008,
      "Ġvurdu": 2009,
      "Ġtik": 2010,
      "ĠtÃ¶k": 2011,
      "Ġnik": 2012,
      "ilmiÅŁ": 2013,
      "ĠmÉĻnz": 2014,
      "Ġplan": 2015,
      "duÄŁu": 2016,
      "asÄ±z": 2017,
      "ĠgÃ¶rmÉĻk": 2018,
      "ĠgÃ¶rÃ¼b": 2019,
      "ĠÃ¶zÃ¼ndÉĻn": 2020,
      "ĠdeyilÉĻm": 2021,
      "Ġbildirdi": 2022,
      "ĠardÄ±n": 2023,
      "ĠyerlÉĻÅŁ": 2024,
      "Ġbaxmayaraq": 2025,
      "Ġyaxud": 2026,
      "tiv": 2027,
      "ĠparÄ±lda": 2028,
      "ĠmÉĻhv": 2029,
      "ĠsevirÉĻm": 2030,
      "iyyÉĻti": 2031,
      "ĠaltÄ±": 2032,
      "ĠdayanÄ±b": 2033,
      "mÉĻlidir": 2034,
      "âĢĿ.": 2035,
      "ĠheyvanlarÄ±n": 2036,
      "ĠbilirsÉĻn": 2037,
      "Ġbilirsiniz": 2038,
      "Ġgeyin": 2039,
      "ĠqÄ±ÅŁqÄ±rdÄ±": 2040,
      "ĠÉĻrz": 2041,
      "ĠmÉĻlum": 2042,
      "ĠdÃ¶vr": 2043,
      "ĠmÉĻcbur": 2044,
      "adi": 2045,
      "adÄ±": 2046,
      "aÄŁa": 2047,
      "aci": 2048,
      "cib": 2049,
      "ganÉĻ": 2050,
      "sen": 2051,
      "zu": 2052,
      "ĠlÉĻn": 2053,
      "ĠbÉĻri": 2054,
      "arkÉĻn": 2055,
      "Ġdir": 2056,
      "irmi": 2057,
      "Ġoyan": 2058,
      "Ġsez": 2059,
      "Ġqox": 2060,
      "Ġmis": 2061,
      "ĠgÃ¼": 2062,
      "Ġgen": 2063,
      "Ġast": 2064,
      "Ġhir": 2065,
      "ÉĻrkÉĻn": 2066,
      "mamÄ±ÅŁ": 2067,
      "mayan": 2068,
      "ĠtÉĻc": 2069,
      "ĠÃ§u": 2070,
      "ĠÃ§ir": 2071,
      "ĠÃ§Ã¶k": 2072,
      "ÉĻtÉĻ": 2073,
      "Ġkif": 2074,
      "ĠnÃ¶": 2075,
      "ĠnÉĻyi": 2076,
      "Ġbas": 2077,
      "ÉĻkar": 2078,
      "ona": 2079,
      "ĠÅŁÉĻh": 2080,
      "ĠcÉĻs": 2081,
      "ĠbaÅŁÄ±na": 2082,
      "Ġxila": 2083,
      "ĠnÉĻcib": 2084,
      "ĠbilmÉĻdi": 2085,
      "Ġarab": 2086,
      "Ġalek": 2087,
      "Ġins": 2088,
      "Ġrut": 2089,
      "Ä±lÄ±r": 2090,
      "iqor": 2091,
      "Ã¼mÃ¼": 2092,
      "ĠÃ¼zv": 2093,
      "ĠÃ¼zÃ¼": 2094,
      "Ġgedirdi": 2095,
      "Ġvaxta": 2096,
      "ĠkeÃ§irdi": 2097,
      "ĠmÉĻnimlÉĻ": 2098,
      "ĠaÃ§Ä±b": 2099,
      "Ġqabaq": 2100,
      "Ġqriqor": 2101,
      "Ġdostum": 2102,
      "ĠmÉĻqam": 2103,
      "ĠtÉĻrpÉĻn": 2104,
      "Ġrahat": 2105,
      "Ġstolun": 2106,
      "Ġkapit": 2107,
      "Ġdua": 2108,
      "ĠmÃ¼dafi": 2109,
      "diniz": 2110,
      "fat": 2111,
      "kel": 2112,
      "lÃ¼y": 2113,
      "qan": 2114,
      "rik": 2115,
      "rinin": 2116,
      "tÉĻh": 2117,
      "ydÄ±": 2118,
      "Ä±cÄ±": 2119,
      "int": 2120,
      "Ġsat": 2121,
      "Ġqiy": 2122,
      "Ġmos": 2123,
      "ĠalÄ±b": 2124,
      "ĠyÄ±ÄŁ": 2125,
      "Ġyola": 2126,
      "ĠimiÅŁ": 2127,
      "Ġidar": 2128,
      "Ġvit": 2129,
      "Ġey": 2130,
      "eyÉĻ": 2131,
      "Ġnaz": 2132,
      "alÄ±n": 2133,
      "ilir": 2134,
      "izÉĻ": 2135,
      "Ġpey": 2136,
      "ĠpillÉĻ": 2137,
      "ĠÅŁir": 2138,
      "ĠxÉĻy": 2139,
      "Ġxid": 2140,
      "ĠxÉĻst": 2141,
      "ÄŁaz": 2142,
      "cazÉĻ": 2143,
      "ĠdÃ¼ÅŁÃ¼rdÃ¼": 2144,
      "ĠqardaÅŁÄ±": 2145,
      "ĠÃ§Ä±xÄ±b": 2146,
      "ĠiÅŁÉĻ": 2147,
      "Ġfikri": 2148,
      "Ġyana": 2149,
      "vanov": 2150,
      "ĠtÉĻsvir": 2151,
      "ĠbilmÉĻrÉĻm": 2152,
      "ĠevdÉĻ": 2153,
      "sizlik": 2154,
      "ĠgÃ¼ldÃ¼": 2155,
      "Ġstul": 2156,
      "Ġpulu": 2157,
      "ĠqÉĻrara": 2158,
      "ĠÃ§alÄ±ÅŁÄ±rdÄ±": 2159,
      "ĠgÃ¶tÃ¼rdÃ¼": 2160,
      "ĠinsanlarÄ±n": 2161,
      "Ġqatar": 2162,
      "ĠhazÄ±rlaÅŁ": 2163,
      "ĠgÃ¶tÃ¼rÃ¼b": 2164,
      "ĠsifÉĻti": 2165,
      "ĠbilmÉĻzdi": 2166,
      "ĠkilsÉĻ": 2167,
      "ĠÉĻmÉĻl": 2168,
      "ĠgÃ¼man": 2169,
      "Ġqazan": 2170,
      "ĠÃ§Ä±rp": 2171,
      "ĠgÃ¶zlÉĻnil": 2172,
      "ĠardÄ±nca": 2173,
      "Ġhirs": 2174,
      "ĠkifayÉĻt": 2175,
      "Ġxilas": 2176,
      "ĠxidmÉĻt": 2177,
      "kÉĻz": 2178,
      "les": 2179,
      "qat": 2180,
      "sÄ±nÄ±n": 2181,
      "tan": 2182,
      "yÄ±b": 2183,
      "ÉĻla": 2184,
      "Ġbin": 2185,
      "ĠsÉĻmi": 2186,
      "Ġqis": 2187,
      "Ġali": 2188,
      "ĠacÄ±": 2189,
      "Ġkab": 2190,
      "ĠkÃ¼nc": 2191,
      "lat": 2192,
      "maya": 2193,
      "ĠtÉĻm": 2194,
      "mÉĻmiÅŁÉĻm": 2195,
      "lidir": 2196,
      "ĠnÉĻy": 2197,
      "ĠnÃ¼ma": 2198,
      "ĠÃ¼s": 2199,
      "ĠÅŁah": 2200,
      "ĠcÉĻmi": 2201,
      "ĠbaÅŁlan": 2202,
      "ĠqaÅŁ": 2203,
      "ĠnÉĻdÉĻn": 2204,
      "Ġverib": 2205,
      "Ġverdiyi": 2206,
      "abÉĻr": 2207,
      "Ġlayiq": 2208,
      "ĠdÃ¼ÅŁmÉĻn": 2209,
      "ĠrÉĻ": 2210,
      "Ä±mÄ±": 2211,
      "ĠÅŁeyÉĻ": 2212,
      "mÉĻyÉĻcÉĻk": 2213,
      "ĠgÃ¼ndÉĻ": 2214,
      "ĠgÃ¼nÉĻÅŁ": 2215,
      "ĠiÅŁi": 2216,
      "Ġburn": 2217,
      "ĠatasÄ±": 2218,
      "Ġonlardan": 2219,
      "ĠÃ§ÉĻkmÉĻ": 2220,
      "ĠdanÄ±ÅŁÄ±rdÄ±": 2221,
      "diyinÉĻ": 2222,
      "ĠmÉĻx": 2223,
      "ĠtÉĻklif": 2224,
      "ĠsaniyÉĻ": 2225,
      "ĠÃ§atdÄ±r": 2226,
      "ĠqapÄ±nÄ±n": 2227,
      "ĠdayanmÄ±ÅŁdÄ±": 2228,
      "ĠyeganÉĻ": 2229,
      "ĠoturmuÅŁdu": 2230,
      "ĠbÉĻrabÉĻr": 2231,
      "Ġboyn": 2232,
      "ĠfikirlÉĻÅŁdi": 2233,
      "Ġqatil": 2234,
      "ĠmÉĻrkÉĻz": 2235,
      "Ġxeyir": 2236,
      "ĠeÅŁitdi": 2237,
      "ĠvÉĻziyyÉĻtdÉĻ": 2238,
      "Ġtele": 2239,
      "Ġtelef": 2240,
      "ĠdÃ¶yÃ¼ÅŁ": 2241,
      "miyyÉĻtlÉĻ": 2242,
      "Ġunut": 2243,
      "Ġnapoleon": 2244,
      "Ġimkan": 2245,
      "Ġtitr": 2246,
      "Ġmilyon": 2247,
      "ĠpeÅŁÉĻkar": 2248,
      "ĠpitanÄ±n": 2249,
      "Ġholm": 2250,
      "Ġvittor": 2251,
      "ed": 2252,
      "ilib": 2253,
      "mÃ¼rdÃ¼": 2254,
      "olay": 2255,
      "sÃ¼n": 2256,
      "tu": 2257,
      "tiq": 2258,
      "Ä±lÄ±b": 2259,
      "Ġbeyn": 2260,
      "ĠseÃ§": 2261,
      "ĠquÅŁ": 2262,
      "ĠgÉĻr": 2263,
      "ĠadÉĻt": 2264,
      "ĠyÄ±x": 2265,
      "ĠyÃ¶n": 2266,
      "ĠhÉĻb": 2267,
      "Ġim": 2268,
      "ĠkÉĻdÉĻr": 2269,
      "Ġkres": 2270,
      "laraq": 2271,
      "Ġek": 2272,
      "Ġedim": 2273,
      "dÉĻk": 2274,
      "Ġpan": 2275,
      "onu": 2276,
      "ati": 2277,
      "ĠetmÉĻyi": 2278,
      "Ġdeyib": 2279,
      "ĠmÃ¼v": 2280,
      "Ġzir": 2281,
      "ĠzÉĻh": 2282,
      "ĠdÃ¼ÅŁÉĻn": 2283,
      "ĠqarÄ±ÅŁ": 2284,
      "lÉĻnir": 2285,
      "lÉĻnmiÅŁ": 2286,
      "Ġrus": 2287,
      "Ġruy": 2288,
      "ĠbaxÄ±r": 2289,
      "ĠqalmÄ±ÅŁdÄ±": 2290,
      "ĠgÉĻlmiÅŁ": 2291,
      "avi": 2292,
      "Ã¼lmÃ¼ÅŁ": 2293,
      "lÄ±qdan": 2294,
      "inizi": 2295,
      "sÉĻnin": 2296,
      "ĠdÉĻrk": 2297,
      "liyin": 2298,
      "liyini": 2299,
      "Ġtutul": 2300,
      "Ġkaterin": 2301,
      "ĠadlandÄ±r": 2302,
      "ĠsaxladÄ±": 2303,
      "Ġuinstonun": 2304,
      "mÉĻsinÉĻ": 2305,
      "Ġkardin": 2306,
      "ĠnÉĻfÉĻs": 2307,
      "Ġpalt": 2308,
      "ĠdÃ¶ndÃ¼": 2309,
      "ĠmÃ¼ttÉĻh": 2310,
      "ĠbÉĻzilÉĻri": 2311,
      "ĠistÉĻmirÉĻm": 2312,
      "ĠmahnÄ±": 2313,
      "ĠmÉĻhkÉĻmÉĻ": 2314,
      "ĠÉĻrzindÉĻ": 2315,
      "?Â»": 2316,
      "ama": 2317,
      "adÃ¼": 2318,
      "est": 2319,
      "ker": 2320,
      "lk": 2321,
      "men": 2322,
      "sini": 2323,
      "sÃ¼nÃ¼z": 2324,
      "yÃ¼": 2325,
      "irÉĻ": 2326,
      "Ġso": 2327,
      "Ġsiya": 2328,
      "ĠqÉĻs": 2329,
      "ĠqÉĻlÉĻ": 2330,
      "Ġger": 2331,
      "ĠhÉĻl": 2332,
      "ĠhÃ¶k": 2333,
      "ĠicazÉĻ": 2334,
      "Ġkir": 2335,
      "ĠkÉĻl": 2336,
      "Ġkor": 2337,
      "ĠkÃ¼t": 2338,
      "dÄ±b": 2339,
      "Ġvet": 2340,
      "lamaÄŁa": 2341,
      "Ã¼ndÃ¼r": 2342,
      "Ġtari": 2343,
      "dÉĻb": 2344,
      "ĠgÃ¶y": 2345,
      "Ġolurdu": 2346,
      "atik": 2347,
      "ĠcÉĻmiyyÉĻt": 2348,
      "ĠetmiÅŁ": 2349,
      "ĠbaÅŁlayÄ±r": 2350,
      "Ġxal": 2351,
      "ĠÉĻlaq": 2352,
      "ĠÃ¶zÃ¼nÃ¼n": 2353,
      "Ġbildi": 2354,
      "Ġbildir": 2355,
      "ĠarÄ±": 2356,
      "Ġucadan": 2357,
      "ĠaldÄ±": 2358,
      "ĠdemiÅŁdi": 2359,
      "lanÄ±r": 2360,
      "umu": 2361,
      "ĠolmadÄ±": 2362,
      "Ġolmayacaq": 2363,
      "ĠaÄŁlÄ±": 2364,
      "ĠiÅŁtir": 2365,
      "Ġburadan": 2366,
      "ĠdÃ¶z": 2367,
      "elm": 2368,
      "ĠgedÉĻn": 2369,
      "ĠatasÄ±nÄ±n": 2370,
      "ĠyaxÅŁÄ±dÄ±r": 2371,
      "ĠkÃ¶k": 2372,
      "ĠtÉĻsadÃ¼": 2373,
      "ĠtapÅŁÄ±r": 2374,
      "ĠsÉĻslÉĻ": 2375,
      "ĠzamanÄ±": 2376,
      "ĠtÉĻrÉĻfindÉĻn": 2377,
      "Ġoradan": 2378,
      "ĠkimsÉĻ": 2379,
      "Ġstep": 2380,
      "ĠsizinlÉĻ": 2381,
      "ĠqaÃ§Ä±b": 2382,
      "ĠayaqlarÄ±nÄ±": 2383,
      "ĠÉĻyn": 2384,
      "ĠsÃ¼rÉĻtlÉĻ": 2385,
      "ĠkÉĻnd": 2386,
      "ĠmityanÄ±n": 2387,
      "ĠnÉĻhÉĻng": 2388,
      "ĠÉĻmr": 2389,
      "Ġtanr": 2390,
      "Ġiyirmi": 2391,
      "Ġbabam": 2392,
      "ĠÃ¼mumiyyÉĻtlÉĻ": 2393,
      "Ġqulluq": 2394,
      "Ġmissis": 2395,
      "Ġdaxil": 2396,
      "Ġmehrib": 2397,
      "brayen": 2398,
      "ĠsÉĻfeh": 2399,
      "ĠsurÉĻtdÉĻ": 2400,
      "Ġnikolay": 2401,
      "Ġkaterina": 2402,
      "Ġtarix": 2403,
      "ĠiÅŁtirak": 2404,
      "!Â»": 2405,
      "cal": 2406,
      "cud": 2407,
      "cÉĻsinÉĻ": 2408,
      "kv": 2409,
      "kdÉĻn": 2410,
      "ora": 2411,
      "pÉĻr": 2412,
      "tdÄ±": 2413,
      "Ä±ÄŁÄ±": 2414,
      "inki": 2415,
      "lÉĻcÉĻk": 2416,
      "Ġsila": 2417,
      "ĠqÉĻh": 2418,
      "ĠqoÅŁ": 2419,
      "Ġmay": 2420,
      "Ġgah": 2421,
      "Ġyor": 2422,
      "ĠhÃ¶r": 2423,
      "Ġkara": 2424,
      "Ġkomi": 2425,
      "Ġvac": 2426,
      "masÄ±nÄ±": 2427,
      "ĠtÉĻli": 2428,
      "liyÉĻ": 2429,
      "ĠniÅŁ": 2430,
      "Ġbat": 2431,
      "Ġpet": 2432,
      "Ġpyo": 2433,
      "aman": 2434,
      "Ġcon": 2435,
      "ĠÉĻÅŁ": 2436,
      "imdÉĻ": 2437,
      "ĠgÃ¶rÉĻn": 2438,
      "ĠnÉĻinki": 2439,
      "Ġbilsin": 2440,
      "lÉĻrimi": 2441,
      "unuz": 2442,
      "ĠgÃ¶zdÉĻn": 2443,
      "likdÉĻn": 2444,
      "Ġbek": 2445,
      "Ġbel": 2446,
      "ĠsizdÉĻn": 2447,
      "Ġisti": 2448,
      "Ä±lÄ±rdÄ±": 2449,
      "Ġsonradan": 2450,
      "ĠbelÉĻdir": 2451,
      "miÅŁdilÉĻr": 2452,
      "Ġatam": 2453,
      "ĠatÉĻÅŁ": 2454,
      "ĠÉĻsÉĻbi": 2455,
      "Â»,": 2456,
      "ĠsÃ¶zlÉĻr": 2457,
      "ĠÃ¼stÃ¼n": 2458,
      "ĠÃ¼stÃ¼ndÉĻn": 2459,
      "ĠdanÄ±ÅŁmaÄŁa": 2460,
      "ĠÉĻvvÉĻllÉĻr": 2461,
      "ĠdÃ¼ÅŁÃ¼nÃ¼r": 2462,
      "ĠdÃ¼ÅŁÃ¼nÃ¼rdÃ¼": 2463,
      "Ġrast": 2464,
      "Ġtutdu": 2465,
      "ĠqarÅŁÄ±laÅŁ": 2466,
      "Ġtapmaq": 2467,
      "diyimi": 2468,
      "ĠaltÄ±na": 2469,
      "Ã¶vh": 2470,
      "ĠtÉĻrÉĻfdÉĻn": 2471,
      "mÃ¼ÅŁÉĻm": 2472,
      "ĠgÃ¶stÉĻrdi": 2473,
      "Ġehtir": 2474,
      "malÄ±dÄ±r": 2475,
      "Ġort": 2476,
      "Ġorta": 2477,
      "ĠacÄ±q": 2478,
      "ĠyaxÄ±nlaÅŁdÄ±": 2479,
      "ĠxÃ¼susilÉĻ": 2480,
      "ĠdÃ¼nyada": 2481,
      "ĠaÄŁÄ±llÄ±": 2482,
      "Ġrahib": 2483,
      "ĠgÃ¼lÃ¼msÉĻdi": 2484,
      "edici": 2485,
      "laÅŁÄ±b": 2486,
      "ĠalÃ§aq": 2487,
      "ĠhÉĻyÉĻcan": 2488,
      "Ġderek": 2489,
      "ĠÃ§evril": 2490,
      "ĠibarÉĻt": 2491,
      "ĠbÉĻdbÉĻxt": 2492,
      "Ġhissi": 2493,
      "ĠxÄ±rda": 2494,
      "ĠÃ§irk": 2495,
      "ĠmÃ¼dafiÉĻ": 2496,
      "ĠtitrÉĻy": 2497,
      "Ġvittoriya": 2498,
      "ĠhÉĻbs": 2499,
      "Ġsilah": 2500,
      "Ġvacib": 2501,
      "dÄ±nÄ±z": 2502,
      "ftÉĻ": 2503,
      "gÉĻ": 2504,
      "ida": 2505,
      "kÃ¼y": 2506,
      "manÄ±n": 2507,
      "qÄ±n": 2508,
      "qor": 2509,
      "sam": 2510,
      "selm": 2511,
      "tÉĻr": 2512,
      "ter": 2513,
      "vÉĻt": 2514,
      "vanÄ±": 2515,
      "Ġli": 2516,
      "ÉĻnÉĻ": 2517,
      "Ã§ÉĻk": 2518,
      "Ġsk": 2519,
      "ĠsÄ±r": 2520,
      "ĠsÃ¼b": 2521,
      "Ġmir": 2522,
      "ĠmÉĻm": 2523,
      "ĠmÉĻlÉĻ": 2524,
      "ĠmÉĻb": 2525,
      "ĠhÃ¼ndÃ¼r": 2526,
      "mat": 2527,
      "mamÄ±ÅŁdÄ±": 2528,
      "Ġtu": 2529,
      "mÉĻti": 2530,
      "Ä±rÄ±q": 2531,
      "ĠmÉĻnasÄ±z": 2532,
      "Ġpor": 2533,
      "stin": 2534,
      "Ġbux": 2535,
      "Ġyata": 2536,
      "ÉĻyini": 2537,
      "ĠÅŁam": 2538,
      "Ġetmir": 2539,
      "ĠnÉĻdir": 2540,
      "Ä±ndakÄ±": 2541,
      "Ġand": 2542,
      "Ġanselm": 2543,
      "Ġalov": 2544,
      "olo": 2545,
      "ĠvermÉĻyÉĻ": 2546,
      "ĠgÃ¶zÉĻ": 2547,
      "ĠdÃ¼ÅŁÃ¼b": 2548,
      "lanan": 2549,
      "ĠyerdÉĻn": 2550,
      "ĠÃ¼Ã§Ã¼ncÃ¼": 2551,
      "ĠÃ§Ä±xmÄ±ÅŁdÄ±": 2552,
      "Ġyoxa": 2553,
      "ĠadamÄ±": 2554,
      "Ġvaxtlar": 2555,
      "laÅŁdÄ±r": 2556,
      "ĠhamÄ±nÄ±n": 2557,
      "ĠdanÄ±ÅŁmaq": 2558,
      "ĠiÃ§inÉĻ": 2559,
      "ĠmÉĻÄŁ": 2560,
      "Ġrakel": 2561,
      "mizi": 2562,
      "Ġsevir": 2563,
      "ĠevindÉĻ": 2564,
      "Ġmalik": 2565,
      "ektor": 2566,
      "ĠsÉĻslÉĻri": 2567,
      "mazov": 2568,
      "mÉĻtli": 2569,
      "ĠalyoÅŁanÄ±n": 2570,
      "Ġitti": 2571,
      "ĠÃ§Ä±xarÄ±b": 2572,
      "ĠnÉĻzarÉĻt": 2573,
      "ĠedirdilÉĻr": 2574,
      "Ġqula": 2575,
      "ĠistÉĻdi": 2576,
      "ĠsÉĻrt": 2577,
      "ĠgÃ¶rdÃ¼m": 2578,
      "ĠqÄ±rmÄ±zÄ±": 2579,
      "ĠeÅŁidÉĻn": 2580,
      "ĠotaÄŁa": 2581,
      "ĠgÃ¶zlÉĻyirdi": 2582,
      "ĠqÄ±sa": 2583,
      "Ġyuxudan": 2584,
      "ĠÉĻksinÉĻ": 2585,
      "ĠyumÅŁaq": 2586,
      "ĠnataÅŁanÄ±n": 2587,
      "ĠtÉĻzÉĻ": 2588,
      "ĠcÉĻhd": 2589,
      "ĠrÉĻngli": 2590,
      "Ġsevinc": 2591,
      "ĠÃ§iyn": 2592,
      "ĠÃ§iyin": 2593,
      "Ġborc": 2594,
      "Ġserge": 2595,
      "ĠkÃ¶rpÃ¼": 2596,
      "ĠmÃ¶vcud": 2597,
      "ĠbÉĻnz": 2598,
      "ĠtÉĻxmin": 2599,
      "ĠqÉĻdim": 2600,
      "ĠhÉĻkim": 2601,
      "ĠgeniÅŁ": 2602,
      "Ġmoskv": 2603,
      "ĠxÉĻyal": 2604,
      "ĠsÉĻmimi": 2605,
      "Ġteleek": 2606,
      "ĠtÉĻsadÃ¼f": 2607,
      "Ġkaramazov": 2608,
      "Ġpyotr": 2609,
      "ĠsergeiÃ§": 2610,
      "acaÄŁam": 2611,
      "ba": 2612,
      "ban": 2613,
      "can": 2614,
      "gil": 2615,
      "gÉĻl": 2616,
      "imÉĻ": 2617,
      "idÉĻ": 2618,
      "murdu": 2619,
      "naq": 2620,
      "pa": 2621,
      "pan": 2622,
      "sk": 2623,
      "ss": 2624,
      "up": 2625,
      "veÃ§": 2626,
      "ylÉĻ": 2627,
      "yÄ±r": 2628,
      "zz": 2629,
      "Ã¼lÉĻn": 2630,
      "anta": 2631,
      "ĠdÃ¼y": 2632,
      "ĠkeÅŁ": 2633,
      "Ġvatik": 2634,
      "mÉĻsÉĻ": 2635,
      "mÉĻliy": 2636,
      "misiniz": 2637,
      "Ä±rsÄ±nÄ±z": 2638,
      "aldÄ±": 2639,
      "aqq": 2640,
      "ĠdaÄŁÄ±": 2641,
      "Ġprin": 2642,
      "ĠpÄ±Ã§": 2643,
      "ĠyadÄ±m": 2644,
      "ĠÅŁiÅŁ": 2645,
      "Ġetib": 2646,
      "ĠÉĻlÉĻ": 2647,
      "ĠÉĻdÉĻb": 2648,
      "ĠgÃ¶rÃ¼r": 2649,
      "ĠgÃ¶rÉĻndÉĻ": 2650,
      "Ġqayn": 2651,
      "Ġfak": 2652,
      "ĠbilmÉĻk": 2653,
      "ĠanladÄ±": 2654,
      "Ġandr": 2655,
      "Ġara": 2656,
      "ĠarÄ±q": 2657,
      "ĠmÃ¼xt": 2658,
      "ĠÃ§oxlu": 2659,
      "Ġdet": 2660,
      "ĠverÉĻ": 2661,
      "ĠidilÉĻr": 2662,
      "Ġzara": 2663,
      "ĠhÉĻftÉĻ": 2664,
      "ĠqalÄ±b": 2665,
      "ĠÃ§Ä±xÄ±ÅŁ": 2666,
      "sip": 2667,
      "ĠÉĻldÉĻ": 2668,
      "ĠbunlarÄ±": 2669,
      "ÉĻlif": 2670,
      "ĠolmadÄ±ÄŁÄ±nÄ±": 2671,
      "ĠÃ¼zÃ¼nÉĻ": 2672,
      "Ġadama": 2673,
      "Ġdediy": 2674,
      "ĠadamdÄ±r": 2675,
      "ĠadamlarÄ±": 2676,
      "ĠsÃ¶zÃ¼nÉĻ": 2677,
      "ĠkÃ¶p": 2678,
      "ĠdanÄ±ÅŁdÄ±": 2679,
      "Ġyalvar": 2680,
      "Ġqoyul": 2681,
      "Ġqoyub": 2682,
      "Ġrakit": 2683,
      "Ġsevgi": 2684,
      "Ġmacal": 2685,
      "Ġyolla": 2686,
      "ĠÃ§atdÄ±": 2687,
      "ĠÃ¶zÃ¼nÃ¼z": 2688,
      "Ġkato": 2689,
      "ĠoÄŁur": 2690,
      "ĠsaldÄ±": 2691,
      "ĠalyoÅŁaya": 2692,
      "ĠitÉĻlÉĻ": 2693,
      "Ġyed": 2694,
      "ĠolunmuÅŁ": 2695,
      "ĠÃ§alÄ±ÅŁÄ±ram": 2696,
      "Ġqucaq": 2697,
      "Ġinsanlar": 2698,
      "ĠgizlÉĻn": 2699,
      "ĠyanÄ±ndan": 2700,
      "ĠfikirlÉĻÅŁirdi": 2701,
      "ĠgiriÅŁ": 2702,
      "Ġpilar": 2703,
      "Ġvurub": 2704,
      "ĠmaraqlÄ±dÄ±r": 2705,
      "ĠmÉĻktÉĻb": 2706,
      "Ġharadan": 2707,
      "ĠqaldÄ±rdÄ±": 2708,
      "ĠqÉĻtl": 2709,
      "Ã¶zÃ¼nÉĻ": 2710,
      "ĠqruÅŁenk": 2711,
      "Ġotaqda": 2712,
      "ĠtÉĻrpÉĻt": 2713,
      "ĠÅŁÉĻxs": 2714,
      "ĠÃ§arpayÄ±": 2715,
      "ĠnÃ¶vb": 2716,
      "ĠtÉĻbÉĻss": 2717,
      "lahi": 2718,
      "ĠuyÄŁun": 2719,
      "ĠeÅŁidildi": 2720,
      "saydÄ±": 2721,
      "ĠhakimiyyÉĻt": 2722,
      "ĠmÉĻqamda": 2723,
      "ĠpillÉĻkÉĻn": 2724,
      "Ġkabin": 2725,
      "ĠyÃ¶nÉĻl": 2726,
      "ĠÉĻÅŁya": 2727,
      "ĠsÃ¼but": 2728,
      "Ġprinsip": 2729,
      "Ġetibar": 2730,
      "ĠmÃ¼xtÉĻlif": 2731,
      "Ġzarafat": 2732,
      "gen": 2733,
      "hÉĻt": 2734,
      "lya": 2735,
      "lub": 2736,
      "mar": 2737,
      "nanÄ±n": 2738,
      "qu": 2739,
      "tÉĻb": 2740,
      "ver": 2741,
      "vanÄ±n": 2742,
      "xoÅŁ": 2743,
      "yanÄ±": 2744,
      "Ġj": 2745,
      "ĠbÄ±Ã§": 2746,
      "anÃ§": 2747,
      "Ġdib": 2748,
      "Ġob": 2749,
      "ÉĻniz": 2750,
      "Ä±nca": 2751,
      "ĠsÄ±ÄŁ": 2752,
      "Ġquy": 2753,
      "Ġmi": 2754,
      "Ġgur": 2755,
      "ĠailÉĻ": 2756,
      "Ġyaman": 2757,
      "Ġkef": 2758,
      "unc": 2759,
      "Ġef": 2760,
      "Ġer": 2761,
      "Ġtoz": 2762,
      "ĠÃ§Ã¶": 2763,
      "misÉĻn": 2764,
      "eyin": 2765,
      "ĠnÉĻs": 2766,
      "ÉĻsindÉĻn": 2767,
      "Ġbayr": 2768,
      "ÉĻki": 2769,
      "Ġpla": 2770,
      "ĠÃ¶tr": 2771,
      "atdÄ±": 2772,
      "ĠÅŁÃ¶": 2773,
      "ĠÅŁal": 2774,
      "ĠcÉĻr": 2775,
      "Ġcum": 2776,
      "ĠcÉĻlb": 2777,
      "ĠcÉĻnab": 2778,
      "ĠbaÅŁlÄ±": 2779,
      "ĠbaÅŁÄ±nda": 2780,
      "Ġxara": 2781,
      "ĠgÃ¶rkÉĻm": 2782,
      "Ġqalib": 2783,
      "ĠmÃ¼ha": 2784,
      "Ġverin": 2785,
      "Ġverirdi": 2786,
      "ĠvermiÅŁdi": 2787,
      "Ġziy": 2788,
      "ĠbaxÄ±b": 2789,
      "ĠqalÄ±n": 2790,
      "mÉĻyÉĻcÉĻyÉĻm": 2791,
      "ĠÉĻlindÉĻn": 2792,
      "ĠbelÉĻcÉĻ": 2793,
      "Ġamerik": 2794,
      "ĠaÄŁar": 2795,
      "ĠÃ¼zrÉĻ": 2796,
      "ĠkeÃ§ib": 2797,
      "ĠolduÄŁundan": 2798,
      "ĠÃ§ÉĻkib": 2799,
      "Ġindiki": 2800,
      "ĠindicÉĻ": 2801,
      "diyindÉĻn": 2802,
      "ĠgetmÉĻk": 2803,
      "ĠillÉĻr": 2804,
      "Ġtapa": 2805,
      "ĠtapanÃ§": 2806,
      "ĠevlÉĻn": 2807,
      "ĠdoÄŁr": 2808,
      "ĠsÃ¶ykÉĻn": 2809,
      "ĠgÃ¼llÉĻ": 2810,
      "Ġqoc": 2811,
      "Ġqop": 2812,
      "Ġarxa": 2813,
      "Ã§Ä±lar": 2814,
      "birimiz": 2815,
      "Ġquru": 2816,
      "Ġolundu": 2817,
      "ĠgÃ¼cÃ¼": 2818,
      "ĠhÉĻmiÅŁÉĻlik": 2819,
      "mÄ±san": 2820,
      "dÄ±qdan": 2821,
      "dÄ±qlarÄ±": 2822,
      "Ġmeyit": 2823,
      "Ġolurlar": 2824,
      "Ġpoz": 2825,
      "ĠdiqqÉĻt": 2826,
      "ĠdÉĻyir": 2827,
      "ĠqaldÄ±rÄ±b": 2828,
      "ĠyadÄ±na": 2829,
      "Ġarvad": 2830,
      "Ġdart": 2831,
      "Ġetdiyini": 2832,
      "Ġsilv": 2833,
      "baÅŁa": 2834,
      "ĠyaÅŁÄ±l": 2835,
      "Ġklov": 2836,
      "ĠmÉĻtbÉĻ": 2837,
      "ĠÃ§uval": 2838,
      "Ġpeyda": 2839,
      "Ġkardinal": 2840,
      "ĠhÉĻll": 2841,
      "Ġanselmo": 2842,
      "ĠÃ¶trÃ¼": 2843,
      "?!": 2844,
      "do": 2845,
      "fil": 2846,
      "iliyyÉĻt": 2847,
      "kil": 2848,
      "mÃ¼": 2849,
      "mÄ±ram": 2850,
      "nun": 2851,
      "nik": 2852,
      "qq": 2853,
      "sÃ¶": 2854,
      "sey": 2855,
      "yÃ¼nÃ¼": 2856,
      "zar": 2857,
      "ĠbÉĻlÉĻ": 2858,
      "lÉĻmÉĻk": 2859,
      "Ġod": 2860,
      "Ġodur": 2861,
      "Ġsiq": 2862,
      "ĠsÉĻkk": 2863,
      "diya": 2864,
      "ĠqÉĻd": 2865,
      "Ġval": 2866,
      "maÄŁÄ±n": 2867,
      "uncu": 2868,
      "ĠtÉĻd": 2869,
      "Ġtoy": 2870,
      "Ġtem": 2871,
      "mÉĻdim": 2872,
      "ĠÃ§aÅŁ": 2873,
      "ĠÃ§ant": 2874,
      "Ä±rsan": 2875,
      "Ġnit": 2876,
      "Ġbazar": 2877,
      "ĠmÉĻndÉĻ": 2878,
      "ÉĻld": 2879,
      "Ġpen": 2880,
      "stik": 2881,
      "ĠÃ¶mr": 2882,
      "Ã¼rat": 2883,
      "dum": 2884,
      "ĠcÉĻz": 2885,
      "Ġxa": 2886,
      "ĠxÉĻt": 2887,
      "ĠÉĻda": 2888,
      "eni": 2889,
      "imdÉĻn": 2890,
      "ĠfÉĻ": 2891,
      "Ġfor": 2892,
      "ĠanlÄ±q": 2893,
      "Ġaram": 2894,
      "Ġaren": 2895,
      "ĠaralÄ±": 2896,
      "Ġaradan": 2897,
      "Ġarzu": 2898,
      "dÃ¼z": 2899,
      "ĠmÃ¼qa": 2900,
      "ĠmÃ¼bar": 2901,
      "ĠÃ§oxu": 2902,
      "ĠvermÉĻdi": 2903,
      "Ġsonuncu": 2904,
      "Ġzal": 2905,
      "yisÉĻ": 2906,
      "ÉĻbbÉĻt": 2907,
      "iyy": 2908,
      "iyyÉĻ": 2909,
      "ĠroÅŁ": 2910,
      "Ġrom": 2911,
      "ĠhÉĻdÉĻ": 2912,
      "ĠgÉĻlmir": 2913,
      "Ã¼nÃ¼b": 2914,
      "ĠÃ§Ä±xan": 2915,
      "ĠedirlÉĻr": 2916,
      "layaraq": 2917,
      "umun": 2918,
      "ÉĻcÉĻyi": 2919,
      "Ġdediyi": 2920,
      "ĠkeÃ§ÉĻn": 2921,
      "adam": 2922,
      "Ġlov": 2923,
      "ĠolduÄŁuna": 2924,
      "ĠkÃ¶yn": 2925,
      "ĠartÄ±r": 2926,
      "ĠÃ¶lÃ¼": 2927,
      "ĠmÉĻft": 2928,
      "lÉĻyib": 2929,
      "lÉĻyirÉĻm": 2930,
      "ĠaÃ§dÄ±": 2931,
      "liyinÉĻ": 2932,
      "Ġraft": 2933,
      "ĠmÉĻhÉĻbbÉĻt": 2934,
      "cÉĻyik": 2935,
      "ĠbarÉĻsindÉĻ": 2936,
      "ĠevinÉĻ": 2937,
      "ĠistÉĻyirdim": 2938,
      "ektr": 2939,
      "ĠkÉĻsin": 2940,
      "ĠtÉĻrÉĻfÉĻ": 2941,
      "ĠtÉĻrk": 2942,
      "Ġkatya": 2943,
      "Ġqorxunc": 2944,
      "Ġsaxlaya": 2945,
      "ĠsakitlÉĻÅŁdir": 2946,
      "ĠhÉĻyatÄ±": 2947,
      "rÉĻdi": 2948,
      "ĠqabaÄŁ": 2949,
      "ĠsÃ¼rÃ¼ÅŁ": 2950,
      "ĠdÉĻhliz": 2951,
      "ĠmaraqlÄ±": 2952,
      "ĠyayÄ±n": 2953,
      "ĠqÄ±rx": 2954,
      "Ġdoldur": 2955,
      "Ġxatir": 2956,
      "ĠxÉĻbÉĻrdar": 2957,
      "ĠgÃ¶zlÉĻyir": 2958,
      "Ä±ldadÄ±": 2959,
      "ĠqonÅŁ": 2960,
      "ĠzÉĻrur": 2961,
      "ĠnÉĻzÉĻrdÉĻ": 2962,
      "Ġkolya": 2963,
      "ĠÃ¼midsiz": 2964,
      "ĠbilÉĻcÉĻk": 2965,
      "ĠgÃ¼nahkar": 2966,
      "Ġfikrini": 2967,
      "rej": 2968,
      "ĠÅŁÉĻhÉĻrdÉĻ": 2969,
      "Ġetiraz": 2970,
      "Ġnapoleonun": 2971,
      "Ġtaxta": 2972,
      "caÄŁÄ±q": 2973,
      "Ġsusdu": 2974,
      "ĠtÉĻnt": 2975,
      "ĠÃ¼mumi": 2976,
      "ĠbÃ¶lgÉĻdÉĻn": 2977,
      "Ã¼quq": 2978,
      "ĠmÃ¼raci": 2979,
      "ĠiÅŁarÉĻ": 2980,
      "ĠtÉĻÉĻssÃ¼rat": 2981,
      "ĠdÃ¶ÅŁÉĻmÉĻyÉĻ": 2982,
      "tina": 2983,
      "Ġqriqori": 2984,
      "Ġkapitol": 2985,
      "Ġimtina": 2986,
      "Ġvetles": 2987,
      "Ġmehriban": 2988,
      "Ġittiham": 2989,
      "Ġfakt": 2990,
      "Ġkabinet": 2991,
      "Ġxarakt": 2992,
      "ĠmÉĻtbÉĻx": 2993,
      "ĠsÉĻkkiz": 2994,
      "Ġtemp": 2995,
      "ĠmÃ¼qayisÉĻ": 2996,
      "!âĢĿ": 2997,
      "),": 2998,
      "ait": 2999,
      "aÄŁÄ±nÄ±": 3000,
      "cisi": 3001,
      "casÄ±na": 3002,
      "deyÉĻ": 3003,
      "hur": 3004,
      "kÃ¼": 3005,
      "klÉĻrini": 3006,
      "manÄ±": 3007,
      "od": 3008,
      "pp": 3009,
      "ram": 3010,
      "tmaq": 3011,
      "xana": 3012,
      "yar": 3013,
      "ydi": 3014,
      "ÅŁan": 3015,
      "anÄ±z": 3016,
      "ĠdÃ¼k": 3017,
      "Ġqut": 3018,
      "ĠqÉĻti": 3019,
      "Ġme": 3020,
      "Ġgirdi": 3021,
      "Ġap": 3022,
      "ĠasÄ±": 3023,
      "ÉĻrlÉĻr": 3024,
      "ÉĻrdim": 3025,
      "Ġka": 3026,
      "Ġkup": 3027,
      "las": 3028,
      "lakov": 3029,
      "ĠtÃ¶": 3030,
      "ĠtÉĻl": 3031,
      "Ġton": 3032,
      "ĠtÃ¼st": 3033,
      "lÉĻrÉĻk": 3034,
      "Ġonsuz": 3035,
      "alÄ±q": 3036,
      "ilirdi": 3037,
      "aqlÄ±": 3038,
      "uror": 3039,
      "Ġpas": 3040,
      "Ġpri": 3041,
      "Ġpap": 3042,
      "oxlakov": 3043,
      "ĠÅŁik": 3044,
      "ĠÅŁlya": 3045,
      "duÄŁunu": 3046,
      "lÄ±ÄŁÄ±nÄ±": 3047,
      "ĠcÉĻf": 3048,
      "ĠetmirÉĻm": 3049,
      "ĠbaÅŁq": 3050,
      "ĠxÉĻ": 3051,
      "Ġxoxlakov": 3052,
      "Ġfran": 3053,
      "ĠdeyilÉĻn": 3054,
      "Ġalda": 3055,
      "ĠalÄ±ÅŁ": 3056,
      "larÄ±mÄ±": 3057,
      "isk": 3058,
      "Ä±rdÄ±m": 3059,
      "unub": 3060,
      "ÉĻdar": 3061,
      "lanÄ±b": 3062,
      "ĠelÉĻdir": 3063,
      "ĠhÉĻv": 3064,
      "Ã¼mÃ¼ÅŁ": 3065,
      "ĠgÃ¼ndÉĻn": 3066,
      "Ġaman": 3067,
      "anÄ±ma": 3068,
      "ĠayÄ±r": 3069,
      "Ġledi": 3070,
      "Ġazca": 3071,
      "ĠdÉĻri": 3072,
      "ĠkÃ¶l": 3073,
      "ĠÃ¶lÃ§": 3074,
      "lÉĻyÉĻn": 3075,
      "lÉĻyirdi": 3076,
      "Ġqoyun": 3077,
      "mizÉĻ": 3078,
      "Ġqaytar": 3079,
      "ĠdoÄŁur": 3080,
      "ĠedÉĻcÉĻyÉĻm": 3081,
      "Ã¶vq": 3082,
      "ĠtamaÅŁa": 3083,
      "ĠdÉĻqiqÉĻdÉĻn": 3084,
      "ĠdayandÄ±": 3085,
      "ĠbaÅŁladÄ±m": 3086,
      "ĠgÃ¶stÉĻrir": 3087,
      "okuror": 3088,
      "Ã§Ä±lÄ±q": 3089,
      "ĠadÄ±nÄ±": 3090,
      "Ġolunan": 3091,
      "ĠgÉĻtirdi": 3092,
      "ĠgÃ¼clÉĻ": 3093,
      "ĠqalxÄ±b": 3094,
      "Ġboyun": 3095,
      "ĠgizlÉĻ": 3096,
      "Ġgirib": 3097,
      "ĠgÉĻtirÉĻ": 3098,
      "ĠqabiliyyÉĻt": 3099,
      "Ġkarrej": 3100,
      "ĠÅŁÉĻkil": 3101,
      "mayÄ±n": 3102,
      "Ġprokuror": 3103,
      "Ä±nÄ±zda": 3104,
      "ĠotaÄŁÄ±na": 3105,
      "ĠotaÄŁÄ±nda": 3106,
      "layacaq": 3107,
      "ĠÉĻraz": 3108,
      "ĠifadÉĻsi": 3109,
      "ĠÉĻksÉĻr": 3110,
      "ĠqÉĻzet": 3111,
      "ĠmÉĻktubu": 3112,
      "ĠistÉĻyirsiniz": 3113,
      "ĠdÃ¶vlÉĻt": 3114,
      "ĠgÉĻzdir": 3115,
      "Ġqorxudan": 3116,
      "ĠpartiyanÄ±n": 3117,
      "ĠaÄŁzÄ±na": 3118,
      "ĠmaÅŁÄ±n": 3119,
      "ĠmaÅŁÄ±nÄ±n": 3120,
      "ĠÃ¼stÉĻlik": 3121,
      "Ġidey": 3122,
      "ĠaxÄ±rda": 3123,
      "Ġbayaq": 3124,
      "ĠqÃ¼vvÉĻ": 3125,
      "Ġbern": 3126,
      "Ġmane": 3127,
      "ĠolmuÅŁam": 3128,
      "Ġoyna": 3129,
      "ĠmÃ¼harib": 3130,
      "ĠmÃ¼haribÉĻ": 3131,
      "Ġnail": 3132,
      "Ġvasit": 3133,
      "onast": 3134,
      "Ġaleksey": 3135,
      "ĠidarÉĻ": 3136,
      "ĠxÉĻstÉĻli": 3137,
      "ĠnÃ¼mayiÅŁ": 3138,
      "Ġtelefon": 3139,
      "Ġmayor": 3140,
      "ĠhÃ¶rmÉĻt": 3141,
      "Ġkomiss": 3142,
      "ĠtÉĻlim": 3143,
      "ĠniÅŁan": 3144,
      "ĠÃ§irkli": 3145,
      "Ġskam": 3146,
      "Ġmirel": 3147,
      "ĠmÉĻmnun": 3148,
      "ĠtÉĻxminÉĻn": 3149,
      "Ġyeddi": 3150,
      "ĠtÉĻrpÉĻtdi": 3151,
      "ĠtÉĻbÉĻssÃ¼m": 3152,
      "ĠmÃ¼raciÉĻt": 3153,
      "ĠcÉĻfÉĻng": 3154,
      "!\"": 3155,
      "cam": 3156,
      "gah": 3157,
      "gÃ¶z": 3158,
      "imi": 3159,
      "isÉĻ": 3160,
      "ke": 3161,
      "le": 3162,
      "ly": 3163,
      "nan": 3164,
      "oli": 3165,
      "ranÄ±ÅŁ": 3166,
      "sÃ¼z": 3167,
      "tara": 3168,
      "ĠÃ¼n": 3169,
      "osi": 3170,
      "Ġben": 3171,
      "Ġboz": 3172,
      "Ġdum": 3173,
      "Ġdurdu": 3174,
      "lÉĻmÉĻyÉĻ": 3175,
      "iri": 3176,
      "irik": 3177,
      "ÉĻnd": 3178,
      "Ã§inin": 3179,
      "Ġsuy": 3180,
      "Ġsist": 3181,
      "ĠmÉĻz": 3182,
      "Ġmonast": 3183,
      "Ġgic": 3184,
      "ĠadÄ±": 3185,
      "Ġkin": 3186,
      "ĠvÉĻs": 3187,
      "mada": 3188,
      "mamaq": 3189,
      "maÄŁÄ±nÄ±": 3190,
      "ĠtÃ¼n": 3191,
      "Ġtul": 3192,
      "ĠtÃ¼k": 3193,
      "ĠÃ§iÃ§": 3194,
      "liya": 3195,
      "ĠbirinÉĻ": 3196,
      "ĠbirbaÅŁa": 3197,
      "eyev": 3198,
      "Ġnor": 3199,
      "Ġnah": 3200,
      "ĠnÃ¶k": 3201,
      "erbur": 3202,
      "ĠdÉĻmir": 3203,
      "ĠmÉĻncÉĻ": 3204,
      "ĠmÉĻnada": 3205,
      "ĠvÉĻh": 3206,
      "ÉĻyin": 3207,
      "Ġxari": 3208,
      "ena": 3209,
      "dÄ±rÄ±cÄ±": 3210,
      "ĠgÃ¶rÃ¼rdÃ¼": 3211,
      "ĠgÃ¶rmÃ¼ÅŁdÃ¼": 3212,
      "Ġfas": 3213,
      "ĠÃ¶zlÉĻri": 3214,
      "ĠÃ¶zlÉĻrini": 3215,
      "Ġbilirdim": 3216,
      "ĠanasÄ±": 3217,
      "ĠarasÄ±ndan": 3218,
      "Ġaln": 3219,
      "ĠmÃ¼bah": 3220,
      "Ġverdiyini": 3221,
      "maqda": 3222,
      "Ġzil": 3223,
      "likdir": 3224,
      "lÉĻnirdi": 3225,
      "Ġre": 3226,
      "ĠrÉĻs": 3227,
      "Ä±mda": 3228,
      "ĠhÉĻya": 3229,
      "Ġbaxmaq": 3230,
      "ĠsÉĻnÉĻd": 3231,
      "ĠÅŁeydÉĻn": 3232,
      "ĠgÉĻldiyini": 3233,
      "Ã¼mÃ¼z": 3234,
      "ĠÉĻllÉĻri": 3235,
      "ÉĻrÉĻf": 3236,
      "umuz": 3237,
      "tima": 3238,
      "ĠolmayÄ±b": 3239,
      "Ġayr": 3240,
      "Ġvaxtda": 3241,
      "Ġlo": 3242,
      "ĠqÄ±zdÄ±r": 3243,
      "ĠdolaÅŁ": 3244,
      "fÉĻq": 3245,
      "ĠmÉĻgÉĻr": 3246,
      "Ġikisi": 3247,
      "ĠhamÄ±dan": 3248,
      "ĠgÃ¶rÃ¼ndÃ¼": 3249,
      "ĠhÉĻlÉĻlik": 3250,
      "ektiv": 3251,
      "ĠkÉĻskin": 3252,
      "ĠmÉĻslÉĻ": 3253,
      "ĠhaqlÄ±": 3254,
      "ĠdÃ¼zgÃ¼n": 3255,
      "ĠÃ§Ä±xardÄ±": 3256,
      "ĠyaÅŁlÄ±": 3257,
      "ĠdÃ¼nyanÄ±n": 3258,
      "Ġsaxla": 3259,
      "ĠnÉĻzÉĻrÉĻ": 3260,
      "ĠnÉĻzak": 3261,
      "ĠheyvanlarÄ±": 3262,
      "ĠdavranÄ±ÅŁ": 3263,
      "obil": 3264,
      "ĠsÉĻrxoÅŁ": 3265,
      "ĠxÉĻbÉĻri": 3266,
      "Ġehtimal": 3267,
      "masÄ±ndan": 3268,
      "ĠmaraqlandÄ±r": 3269,
      "maÄŁÄ±m": 3270,
      "ĠsaÄŁlam": 3271,
      "Ġdinc": 3272,
      "ĠtoplaÅŁ": 3273,
      "ĠaydÄ±ndÄ±r": 3274,
      "ĠbÃ¶lÃ¼ÅŁ": 3275,
      "ĠkÃ¼lÉĻ": 3276,
      "ĠÃ§ÉĻtinlik": 3277,
      "ĠÉĻtrafa": 3278,
      "ĠsÉĻhv": 3279,
      "ĠÅŁÃ¼bhÉĻlÉĻn": 3280,
      "ĠyaÅŁamaq": 3281,
      "Ġkils": 3282,
      "ĠbaxÄ±ÅŁlarÄ±": 3283,
      "ĠmÉĻqsÉĻ": 3284,
      "ĠmÉĻqsÉĻdi": 3285,
      "ĠuzaqlaÅŁ": 3286,
      "ĠtÉĻzim": 3287,
      "Ġmariya": 3288,
      "Ġmeydana": 3289,
      "ĠparÃ§a": 3290,
      "Ġiddi": 3291,
      "ĠdillÉĻndi": 3292,
      "ĠtÉĻhlÃ¼kÉĻ": 3293,
      "ĠbaÄŁÄ±ÅŁla": 3294,
      "ĠÉĻvvÉĻlcÉĻdÉĻn": 3295,
      "Ġelektr": 3296,
      "dÃ¼yÃ¼nÃ¼": 3297,
      "ĠaÅŁkar": 3298,
      "ĠÅŁÃ¼ÅŁÉĻ": 3299,
      "ĠqadÄ±nÄ±n": 3300,
      "ĠrÉĻqib": 3301,
      "Ġharadasa": 3302,
      "ĠnÉĻtic": 3303,
      "ĠnÉĻticÉĻ": 3304,
      "ĠbaÅŁlamÄ±ÅŁdÄ±": 3305,
      "ĠdÄ±rnaq": 3306,
      "ĠnÃ¶mr": 3307,
      "ĠÅŁahid": 3308,
      "ĠqaÅŁqab": 3309,
      "ĠrÉĻÄŁ": 3310,
      "ĠadÉĻtÉĻn": 3311,
      "ĠqÉĻsdÉĻn": 3312,
      "ĠtanrÄ±nÄ±n": 3313,
      "Ġpeterbur": 3314,
      "Ġbekker": 3315,
      "ĠkeÅŁiÅŁ": 3316,
      "Ġquyru": 3317,
      "Ġsiqar": 3318,
      "Ġkomissar": 3319,
      "dindÉĻn": 3320,
      "ll": 3321,
      "linin": 3322,
      "mÉĻr": 3323,
      "mÉĻni": 3324,
      "mirdilÉĻr": 3325,
      "qar": 3326,
      "qir": 3327,
      "qun": 3328,
      "saq": 3329,
      "sÄ±ndan": 3330,
      "uk": 3331,
      "xa": 3332,
      "yir": 3333,
      "Ġun": 3334,
      "ĠbÉĻy": 3335,
      "lÉĻyÉĻ": 3336,
      "Ã§in": 3337,
      "Ã§Ä±q": 3338,
      "Ġsp": 3339,
      "ĠsÉĻt": 3340,
      "Ġskar": 3341,
      "ĠsÄ±Ã§": 3342,
      "Ġqvar": 3343,
      "Ġmus": 3344,
      "ĠgÉĻlÉĻr": 3345,
      "ĠaÄŁÄ±": 3346,
      "ĠhÃ¼quq": 3347,
      "Ġip": 3348,
      "Ġiq": 3349,
      "Ġiyr": 3350,
      "ÄŁuna": 3351,
      "Ġvic": 3352,
      "lacaq": 3353,
      "Ġedi": 3354,
      "Ġert": 3355,
      "mÉĻdiyi": 3356,
      "mÉĻdiyini": 3357,
      "ĠÃ§ap": 3358,
      "ÉĻtdÉĻn": 3359,
      "ĠnÃ¼m": 3360,
      "allÄ±": 3361,
      "ilmiÅŁdi": 3362,
      "Ġbala": 3363,
      "urlar": 3364,
      "dandÄ±": 3365,
      "Ġdair": 3366,
      "ĠdaÄŁÄ±l": 3367,
      "Ġper": 3368,
      "ĠÃ¶lÉĻn": 3369,
      "Ġbuyn": 3370,
      "ata": 3371,
      "atÄ±": 3372,
      "rah": 3373,
      "ĠcÄ±r": 3374,
      "Ġcent": 3375,
      "ĠbaÅŁdan": 3376,
      "Ġxas": 3377,
      "asiya": 3378,
      "ĠqaÅŁÄ±": 3379,
      "ĠÃ¶zÃ¼n": 3380,
      "Ġud": 3381,
      "Ġutan": 3382,
      "ĠmÃ¼ali": 3383,
      "ĠÃ§oxdur": 3384,
      "Ġinam": 3385,
      "Ġinci": 3386,
      "ĠverirÉĻm": 3387,
      "abit": 3388,
      "ĠhÉĻrbi": 3389,
      "lanmÄ±ÅŁdÄ±": 3390,
      "lÉĻnib": 3391,
      "ĠbaxÄ±n": 3392,
      "ĠbaxÄ±ram": 3393,
      "ĠÅŁeyin": 3394,
      "ĠÅŁeylÉĻri": 3395,
      "Ä±lmaz": 3396,
      "ĠgÉĻlmÉĻk": 3397,
      "saya": 3398,
      "ĠetdilÉĻr": 3399,
      "Ġolmaya": 3400,
      "ĠolmaÄŁa": 3401,
      "ĠiÅŁg": 3402,
      "ĠiÅŁin": 3403,
      "inizÉĻ": 3404,
      "yana": 3405,
      "Ġolanda": 3406,
      "ĠazÄ±": 3407,
      "Ġotuz": 3408,
      "ĠÉĻsir": 3409,
      "ĠyanaÅŁ": 3410,
      "Ġdoqq": 3411,
      "ĠsÃ¶zlÉĻ": 3412,
      "Ġparis": 3413,
      "iddÉĻt": 3414,
      "ÉĻsilÉĻ": 3415,
      "ĠtutmuÅŁdu": 3416,
      "ĠfikirlÉĻri": 3417,
      "Ġharrinin": 3418,
      "ĠhamÄ±ya": 3419,
      "Ġdivan": 3420,
      "dÄ±ÄŁÄ±mÄ±z": 3421,
      "ĠbilÉĻrsiniz": 3422,
      "Ġyolu": 3423,
      "ĠkÉĻsÉĻ": 3424,
      "ĠsÉĻslÉĻndi": 3425,
      "ĠqayÄŁÄ±": 3426,
      "ĠgÃ¶stÉĻrÉĻ": 3427,
      "ĠÃ§atanda": 3428,
      "ĠedÉĻk": 3429,
      "Ġyarat": 3430,
      "ĠgÃ¼lÃ¼ÅŁ": 3431,
      "ĠdÃ¼zdÃ¼r": 3432,
      "birÉĻ": 3433,
      "ĠyaÅŁÄ±nda": 3434,
      "Ġqurban": 3435,
      "Ġlenqdonun": 3436,
      "ĠxoÅŁuna": 3437,
      "mÉĻsin": 3438,
      "Ġayaqqab": 3439,
      "sÄ±zlÄ±q": 3440,
      "ĠmÉĻrtÉĻb": 3441,
      "ĠistÉĻdiyini": 3442,
      "ĠsÉĻrf": 3443,
      "ĠaÄŁalar": 3444,
      "ÉĻcÉĻklÉĻr": 3445,
      "ĠqayÄ±da": 3446,
      "masÄ±nÄ±n": 3447,
      "ĠtÉĻhqir": 3448,
      "ĠeÅŁidir": 3449,
      "ĠsÃ¶hbÉĻti": 3450,
      "Ġass": 3451,
      "Ġgeyl": 3452,
      "ĠdÃ¶nÃ¼b": 3453,
      "ĠmÉĻÅŁhur": 3454,
      "ĠgetdikcÉĻ": 3455,
      "ĠxÃ¼susÉĻn": 3456,
      "ĠsÉĻbir": 3457,
      "ĠsÄ±xdÄ±": 3458,
      "ĠduyÄŁu": 3459,
      "Ġyumur": 3460,
      "ĠxatÄ±rla": 3461,
      "Ġmateri": 3462,
      "Ġkoler": 3463,
      "ĠkilsÉĻnin": 3464,
      "ĠuzanÄ±b": 3465,
      "merdo": 3466,
      "Ġpartlay": 3467,
      "Ġotaqdan": 3468,
      "ĠrÉĻngi": 3469,
      "ĠistÉĻmir": 3470,
      "ĠgecÉĻni": 3471,
      "Ġmakmerdo": 3472,
      "ĠcinayÉĻtkar": 3473,
      "baÅŁlÄ±": 3474,
      "ĠbayÄ±ra": 3475,
      "ĠqayÄ±tdÄ±": 3476,
      "Ġavt": 3477,
      "Ġkamerari": 3478,
      "gedÉĻ": 3479,
      "ĠÉĻvÉĻzinÉĻ": 3480,
      "ĠpÉĻncÉĻrÉĻnin": 3481,
      "ĠcibinÉĻ": 3482,
      "ĠsinÉĻsinÉĻ": 3483,
      "ĠtÉĻqdim": 3484,
      "ĠedÉĻcÉĻklÉĻr": 3485,
      "Ġtorp": 3486,
      "ĠÉĻzizim": 3487,
      "Ġculiy": 3488,
      "ĠtÉĻÉĻssÃ¼f": 3489,
      "ĠÃ§Ä±ÄŁÄ±rÄŁan": 3490,
      "ĠparÄ±ldayÄ±rdÄ±": 3491,
      "Ġastadan": 3492,
      "ĠÃ§Ã¶kdÃ¼": 3493,
      "Ġnazir": 3494,
      "ĠgÃ¶zlÉĻnilmÉĻz": 3495,
      "Ġqisas": 3496,
      "ĠzÉĻhmÉĻt": 3497,
      "ĠhÃ¶km": 3498,
      "Ġxalq": 3499,
      "Ġortaya": 3500,
      "Ġsilviya": 3501,
      "sÃ¶hbÉĻt": 3502,
      "Ġarenada": 3503,
      "ĠlovÄŁ": 3504,
      "ĠÅŁikayÉĻt": 3505,
      "ĠnÃ¶kÉĻr": 3506,
      "ĠmÃ¼bahisÉĻ": 3507,
      "Ġskarre": 3508,
      "Ġqvardiya": 3509,
      "Ġvicdan": 3510,
      "ĠnÃ¼mun": 3511,
      "Ġbuynuz": 3512,
      "Ġcentl": 3513,
      "Ġdoqquz": 3514,
      "ĠayaqqabÄ±": 3515,
      "\",": 3516,
      "alar": 3517,
      "cÉĻnab": 3518,
      "eg": 3519,
      "eq": 3520,
      "fÉĻt": 3521,
      "iv": 3522,
      "keÅŁ": 3523,
      "lmaz": 3524,
      "lÃ¶vh": 3525,
      "mÃ¼rÉĻm": 3526,
      "nat": 3527,
      "nsan": 3528,
      "qara": 3529,
      "qila": 3530,
      "ten": 3531,
      "uc": 3532,
      "vet": 3533,
      "vad": 3534,
      "yor": 3535,
      "yib": 3536,
      "yaraq": 3537,
      "Ġos": 3538,
      "Ġlis": 3539,
      "Ã¼yÉĻ": 3540,
      "aram": 3541,
      "Ġduq": 3542,
      "ĠdÉĻstÉĻ": 3543,
      "incÉĻ": 3544,
      "lÉĻm": 3545,
      "irt": 3546,
      "Ġoli": 3547,
      "Ġoke": 3548,
      "ÉĻncÉĻ": 3549,
      "ÉĻnÉĻli": 3550,
      "Ä±ncÄ±": 3551,
      "Ġsey": 3552,
      "ĠsÉĻk": 3553,
      "ĠsÉĻli": 3554,
      "ĠsÃ¼z": 3555,
      "ĠqÃ¼r": 3556,
      "Ġqum": 3557,
      "ĠqanÄ±": 3558,
      "Ġmini": 3559,
      "Ġmort": 3560,
      "Ġalim": 3561,
      "ĠyÄ±r": 3562,
      "ÉĻrik": 3563,
      "Ġili": 3564,
      "Ġkas": 3565,
      "ĠkÉĻsi": 3566,
      "ĠvÉĻrÉĻ": 3567,
      "mayacaq": 3568,
      "Ġtr": 3569,
      "Ġtiki": 3570,
      "mÉĻmÉĻk": 3571,
      "ĠÃ§ÉĻr": 3572,
      "Ġnel": 3573,
      "ilyev": 3574,
      "Ġbah": 3575,
      "ĠdaÅŁÄ±": 3576,
      "ĠÃ¶y": 3577,
      "Ġyast": 3578,
      "ÉĻyinÉĻ": 3579,
      "ĠÅŁok": 3580,
      "ĠcoÅŁ": 3581,
      "Ġetmirdi": 3582,
      "ĠÉĻc": 3583,
      "ĠÉĻq": 3584,
      "imn": 3585,
      "ĠgÃ¶rÃ¼m": 3586,
      "ĠgÃ¶rÉĻsÉĻn": 3587,
      "ĠfÄ±r": 3588,
      "ĠÃ¶zÃ¼ndÉĻ": 3589,
      "miÅŁdir": 3590,
      "Ġsakin": 3591,
      "ĠdeyÉĻcÉĻyÉĻm": 3592,
      "ĠbilmÉĻyÉĻcÉĻk": 3593,
      "Ġana": 3594,
      "ĠanasÄ±nÄ±n": 3595,
      "Ġarada": 3596,
      "mÉĻkdÉĻn": 3597,
      "ĠalÄ±r": 3598,
      "ĠmÃ¼ÉĻl": 3599,
      "mÄ±ÅŁdÄ±r": 3600,
      "Ġinc": 3601,
      "anÄ±na": 3602,
      "Ġidim": 3603,
      "Ġzos": 3604,
      "Ġzah": 3605,
      "Ġzav": 3606,
      "Ġlam": 3607,
      "uÅŁdu": 3608,
      "ĠdÃ¼ÅŁÉĻ": 3609,
      "iyanÄ±": 3610,
      "iyyat": 3611,
      "Ġqaral": 3612,
      "Ġrub": 3613,
      "Ġyerli": 3614,
      "Ġbaxanda": 3615,
      "ĠsÉĻndÉĻ": 3616,
      "ĠsÉĻndÉĻn": 3617,
      "ĠsonrakÄ±": 3618,
      "ĠyaxÄ±nda": 3619,
      "ahidÉĻ": 3620,
      "ĠÃ§Ä±xÄ±r": 3621,
      "ĠÃ§Ä±xmaq": 3622,
      "ĠbizdÉĻn": 3623,
      "ĠbunlarÄ±n": 3624,
      "layÄ±n": 3625,
      "layanda": 3626,
      "eviz": 3627,
      "ĠaÄŁladÄ±": 3628,
      "ĠiÅŁdÉĻn": 3629,
      "ĠbÃ¼tÃ¶v": 3630,
      "ĠadamlarÄ±n": 3631,
      "ĠqÄ±za": 3632,
      "ĠyandÄ±r": 3633,
      "ĠdÉĻrs": 3634,
      "ĠkÃ¶n": 3635,
      "ĠdanÄ±ÅŁa": 3636,
      "ĠuzatdÄ±": 3637,
      "urdular": 3638,
      "liyindÉĻ": 3639,
      "mÉĻzdi": 3640,
      "mizin": 3641,
      "ĠtutmuÅŁ": 3642,
      "ĠfikirlÉĻrini": 3643,
      "Ġdiv": 3644,
      "Ġevin": 3645,
      "ĠmaÄŁ": 3646,
      "ĠistÉĻyÉĻn": 3647,
      "ĠgÃ¶rÃ¼nÃ¼ÅŁ": 3648,
      "ĠbilÉĻrik": 3649,
      "Ġyolda": 3650,
      "ekt": 3651,
      "ĠkÉĻsdi": 3652,
      "ĠsÉĻsini": 3653,
      "Ġqorxulu": 3654,
      "ĠoÄŁlu": 3655,
      "ĠadlÄ±": 3656,
      "ĠpullarÄ±": 3657,
      "ĠyaxÄ±nlaÅŁÄ±b": 3658,
      "ĠqadÄ±nlar": 3659,
      "ĠxoÅŁa": 3660,
      "Ã¼ylÉĻ": 3661,
      "ĠsakitlÉĻÅŁ": 3662,
      "yÉĻndÉĻ": 3663,
      "mÉĻsinin": 3664,
      "ĠayaqlarÄ±": 3665,
      "ĠsadÉĻlÃ¶vh": 3666,
      "ĠgÉĻtirib": 3667,
      "dÄ±qca": 3668,
      "dÄ±qlarÄ±nÄ±": 3669,
      "Ġkart": 3670,
      "ĠsoruÅŁur": 3671,
      "ĠÃ§evirdi": 3672,
      "Ġoxun": 3673,
      "masÄ±n": 3674,
      "Ġprol": 3675,
      "ĠuÅŁaqlar": 3676,
      "ĠdÉĻyiÅŁik": 3677,
      "ĠotaÄŁÄ±": 3678,
      "ĠÉĻsasÉĻn": 3679,
      "ĠqapÄ±ya": 3680,
      "ĠyaddaÅŁ": 3681,
      "ĠiÅŁÄ±ÄŁÄ±": 3682,
      "ĠqÄ±s": 3683,
      "ĠmÃ¼qÉĻss": 3684,
      "ĠÉĻtrafÄ±nda": 3685,
      "Ġteleviz": 3686,
      "Ġdurub": 3687,
      "ÉĻcÉĻyik": 3688,
      "ĠbÉĻrkdÉĻn": 3689,
      "ĠmÃ¼ddÉĻtdÉĻ": 3690,
      "ĠbilÉĻcÉĻyini": 3691,
      "ĠgedÉĻk": 3692,
      "ĠbÉĻdÉĻni": 3693,
      "ĠdalÄ±nca": 3694,
      "ĠmaÅŁÄ±nÄ±": 3695,
      "ĠarvadÄ±": 3696,
      "ĠgÃ¼lÃ¼msÉĻy": 3697,
      "ĠlÉĻzz": 3698,
      "ĠmasanÄ±n": 3699,
      "ĠÅŁÉĻxsÉĻn": 3700,
      "ĠtÉĻhlÃ¼kÉĻli": 3701,
      "Ġunudu": 3702,
      "ĠedilmiÅŁ": 3703,
      "ĠÅŁÉĻrab": 3704,
      "ĠhÉĻddÉĻn": 3705,
      "dÃ¼yÃ¼": 3706,
      "Ġehtiyatla": 3707,
      "ĠyaÄŁÄ±ÅŁ": 3708,
      "Ġolduqca": 3709,
      "ĠÃ¼rÉĻkdÉĻn": 3710,
      "ĠbilmÉĻdim": 3711,
      "Ġmetr": 3712,
      "Ġmetal": 3713,
      "Ġculiya": 3714,
      "Ġhakim": 3715,
      "ĠÃ¼zÃ¼ndÉĻki": 3716,
      "ĠmÃ¼ÅŁahidÉĻ": 3717,
      "ĠhÃ¼cum": 3718,
      "ĠuÄŁur": 3719,
      "ĠmÉĻrhÉĻ": 3720,
      "Ġsnoubollun": 3721,
      "Ġvasilyev": 3722,
      "Ġqoxusu": 3723,
      "ĠqardaÅŁÄ±m": 3724,
      "vanovna": 3725,
      "ĠÉĻmÉĻlli": 3726,
      "ĠgÉĻrgin": 3727,
      "Ġkreslo": 3728,
      "ĠgerÃ§ÉĻk": 3729,
      "ĠqulluqÃ§u": 3730,
      "Ġconsun": 3731,
      "Ġehtiras": 3732,
      "ĠmÉĻÄŁlub": 3733,
      "ĠÃ§iyinlÉĻrini": 3734,
      "ĠbÉĻnzÉĻy": 3735,
      "veÃ§r": 3736,
      "Ġandreyev": 3737,
      "ĠÅŁalvar": 3738,
      "Ġklover": 3739,
      "ĠÃ§aÅŁqÄ±n": 3740,
      "ĠtÉĻntÉĻnÉĻli": 3741,
      "Ġvetlesen": 3742,
      "ĠmÃ¼qayisÉĻdÉĻ": 3743,
      "ppoli": 3744,
      "ĠÅŁlyap": 3745,
      "ĠtÃ¼nd": 3746,
      "ĠÃ§iÃ§ÉĻk": 3747,
      "ĠvÉĻhÅŁi": 3748,
      "ĠfasilÉĻ": 3749,
      "ĠmÉĻslÉĻhÉĻt": 3750,
      "Ġsiqaret": 3751,
      "ĠertÉĻsi": 3752,
      "Ġassas": 3753,
      "Ġcentlmen": 3754,
      "ĠsÉĻliq": 3755,
      "ĠvÉĻrÉĻq": 3756,
      ").": 3757,
      "ayÉĻ": 3758,
      "alarÄ±": 3759,
      "aliyyÉĻt": 3760,
      "bin": 3761,
      "bÉĻc": 3762,
      "fa": 3763,
      "fik": 3764,
      "gildÉĻ": 3765,
      "gÃ¶r": 3766,
      "idi": 3767,
      "kdÉĻ": 3768,
      "mdÉĻ": 3769,
      "mini": 3770,
      "oya": 3771,
      "pub": 3772,
      "pektor": 3773,
      "qey": 3774,
      "qlarÄ±": 3775,
      "qul": 3776,
      "rini": 3777,
      "su": 3778,
      "sul": 3779,
      "sus": 3780,
      "tul": 3781,
      "vaz": 3782,
      "yer": 3783,
      "zÉĻmi": 3784,
      "ÉĻp": 3785,
      "ĠbÉĻ": 3786,
      "ank": 3787,
      "Ġdov": 3788,
      "Ã§ox": 3789,
      "ĠsÉĻm": 3790,
      "Ġsam": 3791,
      "Ġsim": 3792,
      "ĠsÉĻd": 3793,
      "ĠsÃ¼k": 3794,
      "ĠqÉĻm": 3795,
      "ĠmÄ±z": 3796,
      "ĠgÃ¼z": 3797,
      "Ġyek": 3798,
      "ĠyanÄ±ma": 3799,
      "Ġhas": 3800,
      "ĠhuÅŁ": 3801,
      "Ġiti": 3802,
      "ĠkÉĻlÉĻ": 3803,
      "Ġkob": 3804,
      "lasÄ±": 3805,
      "maÅŁ": 3806,
      "madÄ±ÄŁÄ±": 3807,
      "Ġtal": 3808,
      "liÃ§": 3809,
      "list": 3810,
      "ilmÉĻsi": 3811,
      "ĠbacÄ±": 3812,
      "ĠdÉĻvÉĻt": 3813,
      "yad": 3814,
      "Ġolmur": 3815,
      "ĠolsaydÄ±": 3816,
      "ĠÃ¶h": 3817,
      "ĠÃ¼f": 3818,
      "Ġbuz": 3819,
      "Ġbudaq": 3820,
      "ĠÅŁa": 3821,
      "duz": 3822,
      "ĠcÉĻm": 3823,
      "Ġcama": 3824,
      "Ġcora": 3825,
      "ĠcÉĻld": 3826,
      "ĠetmÉĻsi": 3827,
      "ĠbaÅŁÄ±m": 3828,
      "ĠbaÅŁlayÄ±b": 3829,
      "Ġxar": 3830,
      "ĠxaÃ§": 3831,
      "ĠÉĻbÉĻ": 3832,
      "imlÉĻ": 3833,
      "Ġfa": 3834,
      "Ġfay": 3835,
      "Ġanna": 3836,
      "Ġanbar": 3837,
      "ĠalmÄ±ÅŁdÄ±": 3838,
      "Ġzabit": 3839,
      "ÉĻbb": 3840,
      "ĠgÃ¶zÃ¼nÃ¼": 3841,
      "ulmuÅŁdu": 3842,
      "ĠqarÄ±n": 3843,
      "ĠsÃ¶n": 3844,
      "Ġrol": 3845,
      "Ġres": 3846,
      "ĠistÉĻs": 3847,
      "Ġyerini": 3848,
      "ovun": 3849,
      "iqa": 3850,
      "Ġqalmaq": 3851,
      "ĠgÉĻldim": 3852,
      "ĠÃ§Ä±xanda": 3853,
      "ĠÉĻlinÉĻ": 3854,
      "ĠbelÉĻliklÉĻ": 3855,
      "ric": 3856,
      "ĠolmalÄ±": 3857,
      "ĠolmamÄ±ÅŁdÄ±": 3858,
      "ĠolmasÄ±nÄ±": 3859,
      "ĠaÄŁlayÄ±rdÄ±": 3860,
      "Ġdeyilmi": 3861,
      "ĠiÅŁlÉĻri": 3862,
      "Ã¼lÃ¼b": 3863,
      "Ã¼lmÉĻz": 3864,
      "ĠdÃ¶zÉĻ": 3865,
      "ĠgedÉĻr": 3866,
      "ĠfikrÉĻ": 3867,
      "ĠatdÄ±": 3868,
      "Ġotel": 3869,
      "ĠolduÄŁumu": 3870,
      "ĠÉĻsgÉĻr": 3871,
      "ĠÃ§ÉĻkilib": 3872,
      "ĠmÉĻnÉĻvi": 3873,
      "ĠyaxÅŁÄ±sÄ±": 3874,
      "ĠhamÄ±nÄ±": 3875,
      "ĠhamÄ±mÄ±z": 3876,
      "ĠparÄ±ltÄ±": 3877,
      "ĠiÃ§ki": 3878,
      "Ġqoruy": 3879,
      "ĠgetmÉĻyÉĻ": 3880,
      "ĠgetmiÅŁdi": 3881,
      "ĠqoymaÄŁa": 3882,
      "ĠheyvanÄ±": 3883,
      "ĠdÃ¼ÅŁÃ¼ncÉĻ": 3884,
      "ĠhissÉĻsini": 3885,
      "Ġdili": 3886,
      "dÄ±ÄŁÄ±mÄ±": 3887,
      "ĠbilÉĻrsÉĻn": 3888,
      "uyla": 3889,
      "Ġlenoks": 3890,
      "ĠÃ¶zÃ¼mÉĻ": 3891,
      "ÉĻnilÉĻn": 3892,
      "Ġhaqda": 3893,
      "Ġdayanan": 3894,
      "ĠÉĻziyyÉĻt": 3895,
      "ĠbaÅŁladÄ±lar": 3896,
      "ĠgÃ¶stÉĻrmÉĻk": 3897,
      "ĠsalÄ±n": 3898,
      "Ġsalmaq": 3899,
      "ĠsalÄ±b": 3900,
      "ĠstÉĻk": 3901,
      "okrat": 3902,
      "Ġitirdi": 3903,
      "ĠyemÉĻyÉĻ": 3904,
      "Ġsaxlan": 3905,
      "Ġolunur": 3906,
      "Ġoturan": 3907,
      "ĠÃ§alÄ±ÅŁdÄ±": 3908,
      "ĠapardÄ±": 3909,
      "ĠhÉĻyatÄ±nÄ±n": 3910,
      "ĠiradÉĻ": 3911,
      "ĠÉĻyildi": 3912,
      "ĠpivÉĻ": 3913,
      "malÄ±yam": 3914,
      "ÉĻcÉĻksiniz": 3915,
      "ĠnÉĻfÉĻsini": 3916,
      "ĠhÉĻrÉĻkÉĻti": 3917,
      "Ġcinna": 3918,
      "ĠÃ¶ldÃ¼rÃ¼b": 3919,
      "Ġdonub": 3920,
      "Ġdonqul": 3921,
      "acÄ±q": 3922,
      "Ä±nÄ±za": 3923,
      "ĠsÃ¶hbÉĻtÉĻ": 3924,
      "ĠsayÄ±": 3925,
      "luqla": 3926,
      "ĠmÃ¼qavi": 3927,
      "ĠdÉĻhÅŁÉĻt": 3928,
      "ĠÉĻlimi": 3929,
      "ĠsÉĻhn": 3930,
      "ĠsÉĻhif": 3931,
      "ÉĻcÉĻyini": 3932,
      "ĠdÃ¶yÃ¼n": 3933,
      "Ġvanya": 3934,
      "Ġuzaqdan": 3935,
      "ĠdÃ¼ÅŁÃ¼ndÃ¼m": 3936,
      "ĠyaraÅŁÄ±": 3937,
      "ĠaÄŁzÄ±nÄ±": 3938,
      "ĠoyunlarÄ±n": 3939,
      "ĠÉĻminÉĻm": 3940,
      "ĠgÃ¼lÃ¼msÃ¼n": 3941,
      "ĠaddÄ±mlarla": 3942,
      "Ġmakgin": 3943,
      "ĠÅŁÉĻxsi": 3944,
      "ĠÃ¶yrÉĻnmÉĻk": 3945,
      "Ġbokserin": 3946,
      "ÉĻkkÃ¼r": 3947,
      "ĠÉĻmÉĻlÉĻ": 3948,
      "ĠyaÅŁayÄ±r": 3949,
      "ĠsÉĻbÉĻbini": 3950,
      "Ġkamerar": 3951,
      "ĠboÄŁaz": 3952,
      "ĠpavloviÃ§in": 3953,
      "ĠoÄŁlanÄ±n": 3954,
      "ĠtÉĻlÉĻsik": 3955,
      "ĠpÉĻncÉĻrÉĻyÉĻ": 3956,
      "ĠhÉĻyÉĻcanlÄ±": 3957,
      "ĠetmÉĻliy": 3958,
      "ĠkiminsÉĻ": 3959,
      "sÉĻydi": 3960,
      "ĠsÃ¶ylÉĻmÉĻk": 3961,
      "ĠbarmaqlarÄ±": 3962,
      "Ġtabut": 3963,
      "ĠqaranlÄ±qda": 3964,
      "Ġfermada": 3965,
      "ĠmÃ¼nasibÉĻt": 3966,
      "ĠmÉĻnzil": 3967,
      "Ġasta": 3968,
      "ĠnÃ¶q": 3969,
      "Ġaleksan": 3970,
      "Ġnazik": 3971,
      "ĠÅŁirin": 3972,
      "ĠnÉĻdÉĻnsÉĻ": 3973,
      "ĠmÉĻxluq": 3974,
      "Ġkresl": 3975,
      "Ġruyenin": 3976,
      "Ġpaltos": 3977,
      "ĠmÃ¼ttÉĻhim": 3978,
      "ĠgÃ¶yÉĻr": 3979,
      "ĠdÃ¶zÃ¼lmÉĻz": 3980,
      "ĠyadÄ±mdadÄ±r": 3981,
      "ĠkÃ¶pÉĻk": 3982,
      "Ġrakitin": 3983,
      "Ġeffi": 3984,
      "ĠdoÄŁrusu": 3985,
      "ĠqocanÄ±n": 3986,
      "birimizÉĻ": 3987,
      "ĠbÉĻlÉĻd": 3988,
      "ĠqÉĻddar": 3989,
      "ĠfÉĻaliyyÉĻt": 3990,
      "ĠmÉĻftil": 3991,
      "ĠxatirinÉĻ": 3992,
      "ĠqonÅŁu": 3993,
      "ĠfransÄ±z": 3994,
      "Ġskamya": 3995,
      "Ġsuyun": 3996,
      "ĠmonastÄ±r": 3997,
      "Ġiddia": 3998,
      "Ġelektrik": 3999,
      "ĠiyrÉĻnc": 4000,
      "Ġolivet": 4001,
      "Ġmortati": 4002,
      "ĠkasÄ±b": 4003,
      "veÃ§rÉĻli": 4004,
      "ppolit": 4005,
      "publik": 4006,
      "Ġcorab": 4007,
      "ĠÉĻbÉĻdi": 4008,
      "Ġrespublik": 4009,
      "\".": 4010,
      "adÄ±r": 4011,
      "bÉĻl": 4012,
      "bat": 4013,
      "bara": 4014,
      "bel": 4015,
      "baÄŁ": 4016,
      "beyin": 4017,
      "ddÉĻn": 4018,
      "hinÉĻ": 4019,
      "ia": 4020,
      "iyat": 4021,
      "kat": 4022,
      "kanÄ±": 4023,
      "ktor": 4024,
      "lem": 4025,
      "ni": 4026,
      "qoy": 4027,
      "qton": 4028,
      "qnat": 4029,
      "rÃ¼": 4030,
      "rÉĻm": 4031,
      "rÃ¼b": 4032,
      "sp": 4033,
      "sÉĻt": 4034,
      "sinÉĻ": 4035,
      "sindÉĻ": 4036,
      "tdi": 4037,
      "taq": 4038,
      "tÉĻk": 4039,
      "tÉĻrÉĻ": 4040,
      "vik": 4041,
      "vay": 4042,
      "xah": 4043,
      "ĠÉĻyi": 4044,
      "Ã¼lÉĻ": 4045,
      "Ã¼dÃ¼": 4046,
      "ĠbÃ¼k": 4047,
      "ĠbÃ¼z": 4048,
      "arÉĻtlÉĻ": 4049,
      "inat": 4050,
      "Ä±ntÄ±": 4051,
      "Ã§a": 4052,
      "Ã§Ã¼n": 4053,
      "ĠsÄ±n": 4054,
      "Ġmavi": 4055,
      "Ġyun": 4056,
      "ĠhiylÉĻ": 4057,
      "Ġiyn": 4058,
      "ĠkÉĻÅŁ": 4059,
      "ÄŁam": 4060,
      "ÄŁanÄ±n": 4061,
      "masa": 4062,
      "masÄ±nda": 4063,
      "Ġelan": 4064,
      "Ġedin": 4065,
      "Ġtur": 4066,
      "ĠÃ§Ã¼r": 4067,
      "ĠÃ§anta": 4068,
      "mil": 4069,
      "Ġbirt": 4070,
      "Ġbirta": 4071,
      "Ġbirinin": 4072,
      "eyi": 4073,
      "Ġnara": 4074,
      "aqn": 4075,
      "uru": 4076,
      "ĠdÉĻb": 4077,
      "ĠmÉĻnsÉĻ": 4078,
      "ĠvÉĻd": 4079,
      "Ġoleq": 4080,
      "Ġdaima": 4081,
      "Ġpa": 4082,
      "Ġpay": 4083,
      "Ġpsi": 4084,
      "ĠpiÅŁ": 4085,
      "ondon": 4086,
      "Ä±ÅŁdÄ±r": 4087,
      "ĠÃ¶lÉĻ": 4088,
      "ĠÅŁad": 4089,
      "ĠÅŁÉĻrÉĻf": 4090,
      "lÄ±ÄŁÄ±na": 4091,
      "lÄ±ÄŁÄ±nda": 4092,
      "ĠetmÉĻli": 4093,
      "ĠetmiÅŁÉĻm": 4094,
      "orla": 4095,
      "imli": 4096,
      "ĠgÃ¶rmÃ¼ÅŁÉĻm": 4097,
      "Ġqada": 4098,
      "Ġfil": 4099,
      "Ġfiz": 4100,
      "Ġfaci": 4101,
      "ĠfÃ¶vq": 4102,
      "ÄŁÄ±mÄ±": 4103,
      "ĠdeyirdilÉĻr": 4104,
      "ĠanlaÅŁÄ±": 4105,
      "yÉĻcÉĻk": 4106,
      "ĠalmaÄŁa": 4107,
      "ĠdemirÉĻm": 4108,
      "isinin": 4109,
      "Ġinst": 4110,
      "aboy": 4111,
      "ĠzarÄ±": 4112,
      "ĠzÉĻnn": 4113,
      "ĠgÃ¶zÃ¼nÉĻ": 4114,
      "ĠgÃ¶zlÉĻrim": 4115,
      "ĠdÃ¼ÅŁmÃ¼ÅŁ": 4116,
      "ĠdÃ¼ÅŁÃ¼rÉĻm": 4117,
      "ĠdÃ¼ÅŁÉĻndÉĻ": 4118,
      "ult": 4119,
      "ulan": 4120,
      "ulmuÅŁ": 4121,
      "uluq": 4122,
      "iyir": 4123,
      "Ġqarn": 4124,
      "ĠqarÄ±": 4125,
      "ĠrÉĻf": 4126,
      "Ġistis": 4127,
      "ĠqalmÄ±ÅŁ": 4128,
      "ĠgÉĻlin": 4129,
      "ĠvarlÄ±": 4130,
      "ĠÃ§Ä±xa": 4131,
      "ĠÉĻley": 4132,
      "Ġbunlardan": 4133,
      "ÉĻliÅŁ": 4134,
      "ĠiÅŁlÉĻr": 4135,
      "ĠiÅŁdir": 4136,
      "Ġburda": 4137,
      "ĠburasÄ±nda": 4138,
      "lÄ±qda": 4139,
      "ĠlÃ¼t": 4140,
      "Ġlondon": 4141,
      "Ġazal": 4142,
      "ĠazacÄ±q": 4143,
      "ĠÉĻsÉĻb": 4144,
      "Ġyanaq": 4145,
      "ĠÃ§ÉĻkir": 4146,
      "ĠÃ§ÉĻkmÉĻk": 4147,
      "ĠÃ§ÉĻkirdi": 4148,
      "bÉĻti": 4149,
      "ĠsÃ¶zÉĻ": 4150,
      "ĠsÃ¶zÃ¼": 4151,
      "ĠÃ¼stÃ¼mÉĻ": 4152,
      "Ġpark": 4153,
      "Ġparlaq": 4154,
      "ĠdanÄ±ÅŁÄ±r": 4155,
      "Ġhala": 4156,
      "ĠaÃ§Ä±lÄ±b": 4157,
      "Ġqoyur": 4158,
      "ĠqoymuÅŁ": 4159,
      "mÉĻzdim": 4160,
      "mizdÉĻn": 4161,
      "ĠbaÄŁladÄ±": 4162,
      "diyimiz": 4163,
      "ĠbilÉĻrlÉĻr": 4164,
      "Ġyuy": 4165,
      "ĠgÃ¶stÉĻri": 4166,
      "ĠÃ§atan": 4167,
      "ĠetmÉĻklÉĻ": 4168,
      "ĠtÉĻrif": 4169,
      "ÉĻffÉĻq": 4170,
      "Ã¶vlÉĻt": 4171,
      "ĠburadakÄ±": 4172,
      "mazdÄ±": 4173,
      "Ġqorxa": 4174,
      "Ġqorxurdu": 4175,
      "mÉĻtlÉĻndir": 4176,
      "Ġarxadan": 4177,
      "ĠgÃ¶stÉĻrirdi": 4178,
      "Ġsalan": 4179,
      "ĠÃ§Ä±xarÄ±r": 4180,
      "ÉĻqq": 4181,
      "Ġsaxlamaq": 4182,
      "Ġolunurdu": 4183,
      "ĠolunmuÅŁdu": 4184,
      "Ã¼yÃ¼b": 4185,
      "Ġsakitlik": 4186,
      "ĠÃ§alÄ±ÅŁaraq": 4187,
      "ĠdemÉĻkdir": 4188,
      "Ġaparan": 4189,
      "ĠaparÄ±r": 4190,
      "Ġiztir": 4191,
      "ĠbÉĻrki": 4192,
      "ĠhÉĻyatÄ±nda": 4193,
      "ĠqabaÄŁa": 4194,
      "ĠsÃ¼rt": 4195,
      "ĠaÄŁaca": 4196,
      "Ġzamanlar": 4197,
      "ÉĻlÉĻrdÉĻ": 4198,
      "malÄ±san": 4199,
      "Ġketrinin": 4200,
      "ĠÃ§evri": 4201,
      "ĠdeyirlÉĻr": 4202,
      "ÉĻcÉĻksÉĻn": 4203,
      "Ġifa": 4204,
      "ĠqayÄ±dÄ±b": 4205,
      "Ġpuaronun": 4206,
      "ĠvÉĻzif": 4207,
      "Ġprim": 4208,
      "ĠyazÄ±q": 4209,
      "ĠgÃ¶rdÃ¼yÃ¼": 4210,
      "lÃ¼klÉĻ": 4211,
      "Ġmaraqlan": 4212,
      "ĠeÅŁidib": 4213,
      "ĠdÉĻyiÅŁdi": 4214,
      "ĠmÃ¼mkÃ¼ndÃ¼r": 4215,
      "ĠayaÄŁÄ±nÄ±": 4216,
      "Ġoxudu": 4217,
      "ĠfÉĻryad": 4218,
      "ĠaÅŁaÄŁÄ±da": 4219,
      "ĠhÉĻqiqÉĻti": 4220,
      "ĠbilmÉĻzsÉĻn": 4221,
      "ĠdiqqÉĻtini": 4222,
      "ĠdÉĻyÉĻr": 4223,
      "ĠdÉĻymÉĻz": 4224,
      "ĠdÃ¼ÅŁdÃ¼m": 4225,
      "ĠÃ¼stÃ¼ndÉĻki": 4226,
      "ĠÃ§ÉĻtindir": 4227,
      "Ġatalar": 4228,
      "Ġyumru": 4229,
      "ĠfermanÄ±n": 4230,
      "Ġovc": 4231,
      "larÄ±ndakÄ±": 4232,
      "ĠxatÄ±rladÄ±": 4233,
      "ĠaÄŁaclarÄ±n": 4234,
      "Ġqrafin": 4235,
      "ĠÉĻhv": 4236,
      "ĠuzandÄ±": 4237,
      "ĠdÃ¶vrÉĻ": 4238,
      "ĠgedirÉĻm": 4239,
      "ĠfikrindÉĻ": 4240,
      "ĠmÃ¼hÃ¼m": 4241,
      "ĠgÃ¶zlÉĻmÉĻyÉĻ": 4242,
      "Ġmarfa": 4243,
      "Ġbirincisi": 4244,
      "Ġucu": 4245,
      "ĠaÄŁzÄ±ndan": 4246,
      "Ġarva": 4247,
      "ĠfÉĻrqli": 4248,
      "ĠanamÄ±n": 4249,
      "Ġetdiyim": 4250,
      "ĠbaÅŁÄ±ma": 4251,
      "ĠsifÉĻtinÉĻ": 4252,
      "ĠkÃ¼Ã§ÉĻdÉĻ": 4253,
      "ĠtÉĻhlÃ¼kÉĻsiz": 4254,
      "ĠdÉĻlil": 4255,
      "ÉĻkkÉĻb": 4256,
      "ĠmahiyyÉĻt": 4257,
      "ĠgÃ¼mÃ¼ÅŁ": 4258,
      "Ġelm": 4259,
      "ĠuÃ§an": 4260,
      "ĠqÉĻfildÉĻn": 4261,
      "alat": 4262,
      "ĠhÉĻddindÉĻn": 4263,
      "ĠcibindÉĻn": 4264,
      "Ġsahibi": 4265,
      "Ġabidin": 4266,
      "ĠknyazÄ±n": 4267,
      "Ġdere": 4268,
      "ĠyoldaÅŁlar": 4269,
      "ĠÃ¼rÉĻyim": 4270,
      "ĠmÃ¼rÉĻkkÉĻb": 4271,
      "Ġtorpaq": 4272,
      "Ġtabe": 4273,
      "ĠÉĻylÉĻÅŁdi": 4274,
      "ĠyÃ¼ngÃ¼lcÉĻ": 4275,
      "ĠasanlÄ±qla": 4276,
      "ĠyarÄ±sÄ±nÄ±": 4277,
      "Ġalacaq": 4278,
      "cÉĻyimi": 4279,
      "ĠÃ¶nÃ¼ndÉĻ": 4280,
      "Ġistehz": 4281,
      "ĠrazÄ±laÅŁdÄ±": 4282,
      "ĠoxÅŁayan": 4283,
      "ĠoxÅŁayÄ±r": 4284,
      "ĠmÉĻlumdur": 4285,
      "ĠtÉĻcrÃ¼b": 4286,
      "ĠÅŁÉĻhÉĻrÉĻ": 4287,
      "ĠÅŁÉĻhÉĻri": 4288,
      "Ġinspektor": 4289,
      "ĠyanaÅŁÄ±": 4290,
      "ĠgÃ¶zlÉĻnilmÉĻdÉĻn": 4291,
      "Ġbina": 4292,
      "ĠmÃ¼vÉĻffÉĻq": 4293,
      "ĠmÃ¼ttÉĻhimin": 4294,
      "ĠÉĻlaqÉĻ": 4295,
      "ĠtapÅŁÄ±rÄ±q": 4296,
      "ĠÃ¼stÃ¼nlÃ¼k": 4297,
      "Ġtuta": 4298,
      "Ġteleekr": 4299,
      "Ġteleekran": 4300,
      "ĠziyarÉĻt": 4301,
      "filan": 4302,
      "Ġtoyuq": 4303,
      "Ġnitq": 4304,
      "ĠmÃ¼barizÉĻ": 4305,
      "ĠqabaÄŁÄ±nda": 4306,
      "Ġxarakter": 4307,
      "ĠasÄ±lÄ±": 4308,
      "ĠtÉĻlx": 4309,
      "ĠkÃ¶lg": 4310,
      "ĠvasitÉĻsilÉĻ": 4311,
      "ĠcÉĻfÉĻngiyat": 4312,
      "camin": 4313,
      "lyuÅŁ": 4314,
      "Ġbencamin": 4315,
      "ĠmÉĻqsÉĻd": 4316,
      "ĠaÄŁÄ±z": 4317,
      "Ġyumurta": 4318,
      "ĠpartlayÄ±ÅŁ": 4319,
      "ĠculiyanÄ±n": 4320,
      "qilab": 4321,
      "Ġokean": 4322,
      "Ġseyr": 4323,
      "ĠiliÅŁ": 4324,
      "Ġnelli": 4325,
      "Ġrubl": 4326,
      "ĠkÃ¶nÃ¼l": 4327,
      "Ġdivara": 4328,
      "ĠdÉĻyiÅŁiklik": 4329,
      "Ġassasin": 4330,
      "Ġkobud": 4331,
      "ĠÃ¶hdÉĻs": 4332,
      "Ġaleksandr": 4333,
      "qnatyev": 4334,
      "ĠnarazÄ±": 4335,
      "Ġpsix": 4336,
      "Ġiztirab": 4337,
      "biz": 4338,
      "boÅŁ": 4339,
      "cÃ¼z": 4340,
      "dÃ¼n": 4341,
      "dey": 4342,
      "dÃ¼rdÃ¼": 4343,
      "derik": 4344,
      "edÉĻ": 4345,
      "eli": 4346,
      "gÃ¼c": 4347,
      "hÉĻm": 4348,
      "ji": 4349,
      "kÃ¼r": 4350,
      "kÉĻlÉĻ": 4351,
      "kanÄ±n": 4352,
      "kara": 4353,
      "kÃ¼l": 4354,
      "lÄ±ÅŁ": 4355,
      "lob": 4356,
      "mÉĻnin": 4357,
      "ng": 4358,
      "nis": 4359,
      "naya": 4360,
      "pik": 4361,
      "qin": 4362,
      "qda": 4363,
      "qÄ±r": 4364,
      "qÄ±ÅŁ": 4365,
      "rur": 4366,
      "ris": 4367,
      "rum": 4368,
      "ski": 4369,
      "sinin": 4370,
      "tÉĻbi": 4371,
      "vr": 4372,
      "vÉĻr": 4373,
      "viÅŁ": 4374,
      "xli": 4375,
      "xmen": 4376,
      "yÄ±q": 4377,
      "yÄ±ram": 4378,
      "yekt": 4379,
      "ĠlÉĻy": 4380,
      "Ã¼p": 4381,
      "Ġbom": 4382,
      "Ġbrat": 4383,
      "ÅŁik": 4384,
      "andar": 4385,
      "Ġdoy": 4386,
      "lÉĻÄŁ": 4387,
      "irli": 4388,
      "Ġoyat": 4389,
      "Ã§ÉĻ": 4390,
      "ĠsataÅŁ": 4391,
      "Ġsem": 4392,
      "Ġsent": 4393,
      "ĠqÉĻn": 4394,
      "Ġqru": 4395,
      "Ġmon": 4396,
      "Ġmok": 4397,
      "Ġmadam": 4398,
      "Ġaf": 4399,
      "Ġhek": 4400,
      "Ġik": 4401,
      "Ġita": 4402,
      "dÄ±l": 4403,
      "dÄ±ma": 4404,
      "dÄ±ra": 4405,
      "Ġvaq": 4406,
      "Ġvah": 4407,
      "dam": 4408,
      "lamÄ±ÅŁdÄ±": 4409,
      "lasÄ±n": 4410,
      "madÄ±ÄŁÄ±nÄ±": 4411,
      "mamÄ±ÅŁam": 4412,
      "ĠtÃ¼f": 4413,
      "mÉĻmÉĻyÉĻ": 4414,
      "dÉĻy": 4415,
      "ĠÃ§aÄŁ": 4416,
      "ĠÃ§ÉĻp": 4417,
      "lisi": 4418,
      "ÉĻtÉĻn": 4419,
      "Ġbirini": 4420,
      "ĠbirindÉĻ": 4421,
      "Ġniz": 4422,
      "Ġnam": 4423,
      "Ġnis": 4424,
      "ĠnÃ¼f": 4425,
      "eral": 4426,
      "dÉĻni": 4427,
      "ĠdÉĻxli": 4428,
      "ĠgÃ¶v": 4429,
      "ĠgÃ¶yÉĻ": 4430,
      "yaÅŁ": 4431,
      "ÉĻmdÉĻ": 4432,
      "sti": 4433,
      "dirlÉĻr": 4434,
      "dud": 4435,
      "ras": 4436,
      "rav": 4437,
      "rasiya": 4438,
      "inib": 4439,
      "Ġetsin": 4440,
      "ĠbaÅŁÄ±ndan": 4441,
      "ĠÉĻf": 4442,
      "asa": 4443,
      "dÄ±rmaÄŁa": 4444,
      "ĠgÃ¶rmÉĻ": 4445,
      "ĠgÃ¶rmÉĻyÉĻ": 4446,
      "Ġqaya": 4447,
      "Ġqadir": 4448,
      "Ġfre": 4449,
      "Ġsavad": 4450,
      "Ġdeyi": 4451,
      "Ġdeyin": 4452,
      "ĠdeyÉĻrÉĻk": 4453,
      "ĠdeyÉĻrlÉĻr": 4454,
      "Ġbilin": 4455,
      "ĠbilmÉĻyÉĻ": 4456,
      "ĠbilmÉĻmiÅŁdi": 4457,
      "Ġanlamaq": 4458,
      "Ġarist": 4459,
      "ĠarasÄ±na": 4460,
      "mÉĻklÉĻ": 4461,
      "Ġul": 4462,
      "ĠuÅŁaÄŁÄ±": 4463,
      "Ġalma": 4464,
      "ÉĻhr": 4465,
      "ĠmÃ¼lk": 4466,
      "taxt": 4467,
      "ĠdemÉĻyÉĻ": 4468,
      "ĠincÉĻ": 4469,
      "Ġingi": 4470,
      "Ġinstin": 4471,
      "anÄ±nÄ±n": 4472,
      "Ġidik": 4473,
      "ĠzÃ¼l": 4474,
      "Ġzid": 4475,
      "ĠhÉĻrdÉĻn": 4476,
      "ĠgÃ¶zlÉĻrinÉĻ": 4477,
      "ĠgÃ¶zlÉĻrinin": 4478,
      "calÉĻt": 4479,
      "ĠdÃ¼ÅŁmÃ¼ÅŁdÃ¼": 4480,
      "ayÄ±nÄ±n": 4481,
      "lÉĻnÉĻn": 4482,
      "lÉĻndirdi": 4483,
      "ĠrÃ¼s": 4484,
      "Ġrisk": 4485,
      "ĠistÉĻnilÉĻn": 4486,
      "itut": 4487,
      "Ä±mÄ±n": 4488,
      "Ġbaxan": 4489,
      "ĠbaxÄ±m": 4490,
      "Ä±lmasÄ±": 4491,
      "oyev": 4492,
      "ĠqalÄ±r": 4493,
      "ĠqalsÄ±n": 4494,
      "Ġvari": 4495,
      "Ġvarsa": 4496,
      "Ġedirdim": 4497,
      "Ġedirsiniz": 4498,
      "layÄ±rdÄ±lar": 4499,
      "ĠetdiklÉĻri": 4500,
      "umdan": 4501,
      "tih": 4502,
      "ĠolmasÄ±na": 4503,
      "ĠgÃ¼nlÉĻr": 4504,
      "ĠdeyilsÉĻn": 4505,
      "ĠaxÄ±rdÄ±": 4506,
      "lÄ±qdÄ±r": 4507,
      "aÅŁdÄ±r": 4508,
      "ĠbilÉĻn": 4509,
      "ĠbilÉĻy": 4510,
      "Ġfikrin": 4511,
      "ĠatÄ±": 4512,
      "Ġatmaq": 4513,
      "ĠatÄ±b": 4514,
      "iÅŁin": 4515,
      "Ġley": 4516,
      "ĠqÄ±zÄŁÄ±n": 4517,
      "ĠyandÄ±rdÄ±": 4518,
      "ĠyanlÄ±ÅŁ": 4519,
      "ĠÃ§ÉĻkin": 4520,
      "ĠÃ§ÉĻkÉĻrÉĻk": 4521,
      "usov": 4522,
      "Ġdoktor": 4523,
      "ĠdÉĻrindÉĻn": 4524,
      "ĠdÉĻrman": 4525,
      "Ġhamar": 4526,
      "ĠkÃ¶Ã§": 4527,
      "ĠkÃ¶mÃ¼r": 4528,
      "Ġparson": 4529,
      "ĠhÉĻmÃ§inin": 4530,
      "ĠindiyÉĻ": 4531,
      "Ġqoru": 4532,
      "Ġhagen": 4533,
      "diyyÉĻ": 4534,
      "diyiniz": 4535,
      "lÉĻyin": 4536,
      "lÉĻyÉĻrÉĻk": 4537,
      "ĠaÃ§maÄŁa": 4538,
      "ĠaÃ§Ä±lan": 4539,
      "Ġilg": 4540,
      "liydi": 4541,
      "ess": 4542,
      "mÉĻzdÉĻn": 4543,
      "Ġheyran": 4544,
      "Ġtutur": 4545,
      "ĠmÉĻhrum": 4546,
      "luÄŁu": 4547,
      "luÄŁun": 4548,
      "Ġfikirli": 4549,
      "ĠhissÉĻsi": 4550,
      "ĠqarÅŁÄ±sÄ±nÄ±": 4551,
      "ĠqarÅŁÄ±sÄ±na": 4552,
      "ĠdilÉĻ": 4553,
      "ĠevdÉĻn": 4554,
      "ĠgÃ¶rÃ¼nÉĻn": 4555,
      "Ġhallarda": 4556,
      "Ġhalbu": 4557,
      "ĠsÉĻssiz": 4558,
      "ĠdÉĻfÉĻlÉĻrlÉĻ": 4559,
      "Ġsanc": 4560,
      "ĠtÉĻrb": 4561,
      "ĠaltÄ±ndan": 4562,
      "ĠharriyÉĻ": 4563,
      "ĠmÉĻsa": 4564,
      "Ġyarpaq": 4565,
      "ĠsÃ¶yÃ¼ÅŁ": 4566,
      "ĠgÃ¼lÃ¼r": 4567,
      "ĠtÉĻrÉĻfi": 4568,
      "apit": 4569,
      "ĠÃ¶zÃ¼ylÉĻ": 4570,
      "Ġqorxdu": 4571,
      "ĠÉĻzÉĻlÉĻ": 4572,
      "ĠarxasÄ±ndan": 4573,
      "Ã§Ä±larÄ±n": 4574,
      "ĠÃ§Ä±xarmaq": 4575,
      "ĠÃ§Ä±xartdÄ±": 4576,
      "birini": 4577,
      "birindÉĻn": 4578,
      "ĠsaxlayÄ±r": 4579,
      "ĠqadÄ±nlarÄ±n": 4580,
      "ĠxoÅŁu": 4581,
      "ĠxoÅŁuma": 4582,
      "Ã¼yÃ¼r": 4583,
      "ĠÃ§alÄ±ÅŁÄ±r": 4584,
      "ĠhÉĻmiÅŁÉĻki": 4585,
      "mÉĻsindÉĻn": 4586,
      "ĠhÉĻyatda": 4587,
      "xtiy": 4588,
      "ĠmÉĻras": 4589,
      "ĠÃ¼zÉĻrindÉĻn": 4590,
      "ĠgirÉĻn": 4591,
      "ĠsÉĻninlÉĻ": 4592,
      "ĠgÃ¶zÉĻllik": 4593,
      "ĠsoruÅŁmaq": 4594,
      "ĠvuruÅŁ": 4595,
      "mayÄ±m": 4596,
      "ĠqayÄ±dan": 4597,
      "ĠyazÄ±lmÄ±ÅŁdÄ±": 4598,
      "ĠuÅŁaqlarÄ±": 4599,
      "Ġolursa": 4600,
      "ĠeÅŁitmiÅŁÉĻm": 4601,
      "ĠkeÃ§irir": 4602,
      "ĠmÉĻsÉĻlÉĻdir": 4603,
      "ĠasÄ±n": 4604,
      "ĠvÉĻziyyÉĻti": 4605,
      "ĠoxumaÄŁa": 4606,
      "Ġdindir": 4607,
      "ĠboÅŁal": 4608,
      "ĠgÃ¶zlÉĻyirÉĻm": 4609,
      "ĠhÉĻrÉĻkÉĻtlÉĻri": 4610,
      "ĠhÉĻrÉĻkÉĻtsiz": 4611,
      "Ã§ilÉĻr": 4612,
      "Ġyadda": 4613,
      "ĠduyÄŁ": 4614,
      "Ġsahil": 4615,
      "ĠÉĻtraflÄ±": 4616,
      "ĠmÃ¶cÃ¼z": 4617,
      "ĠzÉĻrrÉĻ": 4618,
      "ĠnÉĻzÉĻrdÉĻn": 4619,
      "ĠyetÉĻr": 4620,
      "ĠgÃ¶zlÉĻrimi": 4621,
      "ĠarxasÄ±ndakÄ±": 4622,
      "Ġqanun": 4623,
      "ĠtÉĻzÉĻdÉĻn": 4624,
      "ĠgedÉĻcÉĻk": 4625,
      "ĠfikrindÉĻn": 4626,
      "ĠdÃ¼nÉĻnki": 4627,
      "ĠqardaÅŁÄ±n": 4628,
      "ĠtÉĻÉĻccÃ¼blÉĻndir": 4629,
      "Ġyaramaz": 4630,
      "ĠaÄŁzÄ±nda": 4631,
      "Ġarve": 4632,
      "ĠfÉĻrqinÉĻ": 4633,
      "ĠgecÉĻnin": 4634,
      "Ġide": 4635,
      "ĠkÃ¼Ã§ÉĻlÉĻr": 4636,
      "ĠmeÅŁÉĻdÉĻ": 4637,
      "Ġizahat": 4638,
      "Ġyelena": 4639,
      "ĠtÉĻsiri": 4640,
      "mÉĻmiÅŁdÉĻn": 4641,
      "mÉĻmiÅŁdir": 4642,
      "ĠyaÅŁayÄ±rdÄ±": 4643,
      "Ġdonuzlardan": 4644,
      "Ġavrasiya": 4645,
      "ĠtÉĻÅŁkil": 4646,
      "ĠtÉĻÅŁÉĻkkÃ¼r": 4647,
      "ĠboÄŁa": 4648,
      "ĠqÉĻlbi": 4649,
      "ĠalÃ§al": 4650,
      "ĠtanrÄ±ya": 4651,
      "ĠolduqlarÄ±nÄ±": 4652,
      "ĠqaydasÄ±nda": 4653,
      "ĠsaÃ§larÄ±": 4654,
      "ĠbÃ¶lgÉĻnin": 4655,
      "ĠÃ¶tÃ¼r": 4656,
      "ĠÃ¶tÃ¼b": 4657,
      "ĠsÉĻv": 4658,
      "oqq": 4659,
      "ĠsolÄŁun": 4660,
      "ĠkÉĻnarda": 4661,
      "ĠeÅŁidilirdi": 4662,
      "ĠpÉĻrdÉĻ": 4663,
      "ĠqadÄ±nÄ±": 4664,
      "ĠmÉĻtbu": 4665,
      "ĠdÃ¶ÅŁÉĻmÉĻ": 4666,
      "ĠpÉĻncÉĻrÉĻdÉĻn": 4667,
      "ĠÃ§ayÄ±n": 4668,
      "Ġistehs": 4669,
      "Ġistehza": 4670,
      "ĠdodaqlarÄ±nÄ±": 4671,
      "Ġoxuyurdu": 4672,
      "ĠlÉĻnÉĻt": 4673,
      "Ġsezar": 4674,
      "Ġmiskin": 4675,
      "ĠcÉĻsÉĻd": 4676,
      "ĠcÉĻsarÉĻt": 4677,
      "ĠinsanÄ±": 4678,
      "lÃ¼yÃ¼": 4679,
      "intaq": 4680,
      "ĠyÄ±ÄŁÄ±ÅŁ": 4681,
      "Ġqatarda": 4682,
      "ĠÃ§Ä±rpdÄ±": 4683,
      "ĠalicÉĻnab": 4684,
      "ĠnÉĻylÉĻ": 4685,
      "ĠnÃ¼mayÉĻndÉĻ": 4686,
      "ĠÃ¼sul": 4687,
      "Ġboynuna": 4688,
      "Ġxeyirxah": 4689,
      "ĠzirzÉĻmi": 4690,
      "ĠgÉĻlmiÅŁkÉĻn": 4691,
      "Ġsiyah": 4692,
      "ĠqÉĻlÉĻbÉĻ": 4693,
      "ĠgeriyÉĻ": 4694,
      "pÉĻrÉĻst": 4695,
      "ĠacÄ±qlÄ±": 4696,
      "qorxa": 4697,
      "ĠmÉĻbÉĻd": 4698,
      "ĠmÉĻblÉĻÄŁ": 4699,
      "mÉĻliyÉĻm": 4700,
      "Ġdetektiv": 4701,
      "ĠnÃ¶vbÉĻdÉĻ": 4702,
      "ĠdibindÉĻ": 4703,
      "ĠamerikalÄ±": 4704,
      "ĠdÉĻyirman": 4705,
      "Ġvalen": 4706,
      "ĠtÉĻdric": 4707,
      "ĠÉĻdalÉĻt": 4708,
      "ĠxÉĻbÉĻrdarlÄ±q": 4709,
      "ĠzÉĻruri": 4710,
      "ĠfaktlarÄ±": 4711,
      "Ġtemplin": 4712,
      "Ġapara": 4713,
      "ĠxÉĻcalÉĻt": 4714,
      "Ġxoxlakova": 4715,
      "ĠhÉĻvÉĻs": 4716,
      "ĠÉĻksÉĻriyyÉĻti": 4717,
      "Ġsistem": 4718,
      "timai": 4719,
      "Ġloj": 4720,
      "ĠsÄ±Ã§ray": 4721,
      "Ġmusiq": 4722,
      "ĠmÃ¼alicÉĻ": 4723,
      "ĠxatÄ±rladan": 4724,
      "ĠmaterialÄ±": 4725,
      "ĠqÃ¼rur": 4726,
      "ĠzavallÄ±": 4727,
      "ĠxoÅŁagÉĻl": 4728,
      "ĠmÉĻrhÉĻmÉĻt": 4729,
      "Ġandreyevna": 4730,
      "ĠdovÅŁan": 4731,
      "ĠsÃ¼kut": 4732,
      "Ġfayda": 4733,
      "ĠheyvanÄ±st": 4734,
      "ĠdonquldandÄ±": 4735,
      "ĠmÃ¼qavimÉĻt": 4736,
      "ĠyaraÅŁÄ±q": 4737,
      "Ġkamerarinin": 4738,
      "Ġolivetti": 4739,
      "ĠkÉĻÅŁf": 4740,
      "ĠanlaÅŁÄ±lmaz": 4741,
      "Ġinstitut": 4742,
      "ĠburasÄ±ndadÄ±r": 4743,
      "ĠÃ¶hdÉĻsindÉĻn": 4744,
      "loboyev": 4745,
      "ĠlÉĻyaq": 4746,
      "Ġqrup": 4747,
      "ĠmokrÄ±": 4748,
      "ĠitaÉĻt": 4749,
      "ĠtÃ¼fÉĻng": 4750,
      "ĠnÃ¼fuz": 4751,
      "Ġfrederik": 4752,
      "Ġaristokrat": 4753,
      "ĠrÃ¼svay": 4754,
      "Ġhalbuki": 4755,
      "ĠtÉĻdricÉĻn": 4756,
      "acaÄŁÄ±": 4757,
      "bo": 4758,
      "br": 4759,
      "belÉĻ": 4760,
      "cÄ±m": 4761,
      "casÄ±": 4762,
      "dÃ¶": 4763,
      "ec": 4764,
      "for": 4765,
      "fyon": 4766,
      "giya": 4767,
      "hÉĻ": 4768,
      "hey": 4769,
      "ii": 4770,
      "ita": 4771,
      "ici": 4772,
      "kÉĻl": 4773,
      "kÉĻy": 4774,
      "kini": 4775,
      "kindÉĻn": 4776,
      "klÉĻrindÉĻn": 4777,
      "lmÉĻ": 4778,
      "ne": 4779,
      "nanÄ±": 4780,
      "odu": 4781,
      "ppaq": 4782,
      "qaÅŁ": 4783,
      "qanlÄ±": 4784,
      "rinÉĻ": 4785,
      "sÉĻl": 4786,
      "sim": 4787,
      "sik": 4788,
      "tonun": 4789,
      "vol": 4790,
      "yÉĻm": 4791,
      "yox": 4792,
      "yol": 4793,
      "zm": 4794,
      "Ġliz": 4795,
      "Ä±ÄŁÄ±l": 4796,
      "ĠbÉĻÅŁ": 4797,
      "Ġbank": 4798,
      "ÅŁir": 4799,
      "arla": 4800,
      "arÉĻti": 4801,
      "ani": 4802,
      "ĠdÉĻn": 4803,
      "ĠdÃ¼r": 4804,
      "lÉĻyi": 4805,
      "irsiniz": 4806,
      "Ġoya": 4807,
      "Ã§isi": 4808,
      "ĠsÉĻy": 4809,
      "Ġsox": 4810,
      "Ġsov": 4811,
      "ĠsÃ¼m": 4812,
      "Ġsosi": 4813,
      "Ã¶y": 4814,
      "ĠqÉĻl": 4815,
      "Ġqam": 4816,
      "Ġqus": 4817,
      "ĠqÉĻtlÉĻ": 4818,
      "Ġqana": 4819,
      "ĠmÉĻy": 4820,
      "Ġmobil": 4821,
      "Ġak": 4822,
      "ĠadÄ±m": 4823,
      "Ġalaca": 4824,
      "Ġhop": 4825,
      "Ġhimn": 4826,
      "Ġkal": 4827,
      "Ġkur": 4828,
      "Ġkandar": 4829,
      "Ġvil": 4830,
      "lad": 4831,
      "laf": 4832,
      "lamÄ±ÅŁam": 4833,
      "mam": 4834,
      "Ġte": 4835,
      "Ġtir": 4836,
      "ĠtÃ¶v": 4837,
      "ĠtÃ¼p": 4838,
      "Ġtoqq": 4839,
      "mÉĻl": 4840,
      "mÉĻlÉĻri": 4841,
      "dÉĻti": 4842,
      "mitr": 4843,
      "ĠbirdÉĻ": 4844,
      "ĠbirlÉĻÅŁ": 4845,
      "Ġbirisi": 4846,
      "ĠbirlÉĻÅŁdir": 4847,
      "ĠkimÉĻ": 4848,
      "Ġnat": 4849,
      "alÄ±nÄ±n": 4850,
      "dÉĻnin": 4851,
      "ĠdÉĻft": 4852,
      "ĠvÉĻc": 4853,
      "ĠvÉĻkil": 4854,
      "ĠpÉĻt": 4855,
      "Ġpil": 4856,
      "Ġpat": 4857,
      "Ġpara": 4858,
      "amÄ±ÅŁ": 4859,
      "sta": 4860,
      "ĠÃ¶mÃ¼r": 4861,
      "Ġbuy": 4862,
      "Ġyada": 4863,
      "ĠyadÄ±ma": 4864,
      "ator": 4865,
      "ĠÅŁax": 4866,
      "ĠÅŁtab": 4867,
      "dua": 4868,
      "Ä±nÄ±zÄ±": 4869,
      "Ġci": 4870,
      "ĠcÄ±ÄŁÄ±r": 4871,
      "ĠetsÉĻ": 4872,
      "ĠetmÉĻyin": 4873,
      "ĠbaÅŁÄ±nÄ±n": 4874,
      "ĠbaÅŁÄ±mÄ±": 4875,
      "ĠÉĻmÉĻk": 4876,
      "ĠÉĻmÉĻli": 4877,
      "asÄ±n": 4878,
      "enya": 4879,
      "Ġfir": 4880,
      "ĠfÄ±n": 4881,
      "ĠfÉĻs": 4882,
      "ĠfÃ¼r": 4883,
      "Ġfiq": 4884,
      "ĠfahiÅŁ": 4885,
      "ĠfÉĻla": 4886,
      "Ġfanta": 4887,
      "ĠnÉĻÅŁ": 4888,
      "ĠdeyÉĻn": 4889,
      "Ġdeyim": 4890,
      "ĠbilmiÅŁdi": 4891,
      "Ġbildim": 4892,
      "ĠbilmÉĻyib": 4893,
      "Ġani": 4894,
      "Ġust": 4895,
      "ĠalÄ±rdÄ±": 4896,
      "ĠaldÄ±m": 4897,
      "ĠaldÄ±ÄŁÄ±": 4898,
      "ĠaldÄ±ÄŁÄ±m": 4899,
      "Ġalver": 4900,
      "ĠalqÄ±ÅŁ": 4901,
      "dÃ¼d": 4902,
      "ĠmÃ¼st": 4903,
      "mÄ±ÅŁÄ±q": 4904,
      "ĠdemÉĻdim": 4905,
      "ĠinÉĻk": 4906,
      "Ġinad": 4907,
      "Ġinkar": 4908,
      "ĠinildÉĻ": 4909,
      "Ġintiq": 4910,
      "Ġintih": 4911,
      "ĠvermiÅŁ": 4912,
      "ĠverÉĻcÉĻk": 4913,
      "ÉĻddÃ¼d": 4914,
      "abÄ±r": 4915,
      "maqdan": 4916,
      "Ġsonda": 4917,
      "Ġziya": 4918,
      "ĠzÉĻhÉĻr": 4919,
      "ĠzÄ±ÄŁ": 4920,
      "Ġzia": 4921,
      "ĠgÃ¶zÃ¼": 4922,
      "ĠdÃ¼ÅŁmÃ¼rdÃ¼": 4923,
      "uldu": 4924,
      "ayn": 4925,
      "ĠqarÉĻt": 4926,
      "ĠqaranlÄ±": 4927,
      "lanÄ±rdÄ±": 4928,
      "lÉĻnmiÅŁdi": 4929,
      "Ġrep": 4930,
      "Ġistiqa": 4931,
      "Ġistintaq": 4932,
      "Ġbaxaraq": 4933,
      "Ä±ldÄ±ÄŁÄ±": 4934,
      "ĠqalÄ±rdÄ±": 4935,
      "ĠgÉĻlmÉĻ": 4936,
      "ĠgÉĻlmÉĻdi": 4937,
      "ĠÃ§Ä±xdÄ±lar": 4938,
      "silÉĻ": 4939,
      "Ġoldum": 4940,
      "Ġedirik": 4941,
      "evr": 4942,
      "Ġtac": 4943,
      "ĠolmadÄ±ÄŁÄ±": 4944,
      "ĠolmalÄ±dÄ±r": 4945,
      "ĠgÃ¼nÃ¼n": 4946,
      "ĠÃ¼zÉĻri": 4947,
      "Ã¼lÃ¼r": 4948,
      "Ã¼ldÃ¼": 4949,
      "lÄ±qlÄ±": 4950,
      "Ġadamlardan": 4951,
      "aÅŁkar": 4952,
      "ĠbiabÄ±r": 4953,
      "ĠkeÃ§ÉĻndÉĻ": 4954,
      "sÉĻniz": 4955,
      "ĠtÉĻf": 4956,
      "ĠtÉĻlaÅŁ": 4957,
      "ĠatÄ±l": 4958,
      "ĠatasÄ±nÄ±": 4959,
      "ĠatÄ±ldÄ±": 4960,
      "ĠvaxtÄ±n": 4961,
      "Ġvaxtsa": 4962,
      "Ġazor": 4963,
      "Ġotter": 4964,
      "ĠqÄ±zar": 4965,
      "ĠÉĻsÉĻr": 4966,
      "ĠÉĻsasÄ±nda": 4967,
      "ĠyanÄ±l": 4968,
      "ĠÃ§ÉĻkÉĻn": 4969,
      "ĠÃ§ÉĻkil": 4970,
      "bÉĻtÉĻn": 4971,
      "usunu": 4972,
      "usuna": 4973,
      "ĠsÃ¶zlÉĻrinÉĻ": 4974,
      "ĠÃ¼stÃ¼": 4975,
      "ĠkÃ¶lÉĻ": 4976,
      "Ġparfyon": 4977,
      "qiqat": 4978,
      "ĠdanÄ±ÅŁÄ±rdÄ±lar": 4979,
      "ĠiÃ§di": 4980,
      "ĠÃ¶lkÉĻn": 4981,
      "diyin": 4982,
      "ĠaÃ§Ä±ldÄ±": 4983,
      "Ġgetdim": 4984,
      "Ġqoymaq": 4985,
      "ĠÉĻvvÉĻldÉĻn": 4986,
      "liylÉĻ": 4987,
      "liyinin": 4988,
      "ĠheykÉĻl": 4989,
      "ĠdÃ¼ÅŁÃ¼nmÉĻk": 4990,
      "ĠtutmaÄŁa": 4991,
      "luÄŁa": 4992,
      "Ġsevg": 4993,
      "Ġsevdiyi": 4994,
      "ĠtapdÄ±": 4995,
      "Ġtapda": 4996,
      "ĠtapÄ±b": 4997,
      "uzÉĻ": 4998,
      "cÉĻyÉĻ": 4999,
      "ĠbarmaÄŁÄ±nÄ±": 5000,
      "iyyÉĻtindÉĻ": 5001,
      "ĠbilÉĻrdim": 5002,
      "ĠbilÉĻrdilÉĻr": 5003,
      "ĠolacaÄŁam": 5004,
      "ĠolacaÄŁÄ±nÄ±": 5005,
      "zÄ±ÄŁ": 5006,
      "mÉĻyim": 5007,
      "mÉĻyinin": 5008,
      "ĠÃ§atÄ±r": 5009,
      "ĠÃ§atÄ±rdÄ±": 5010,
      "ĠtÉĻrÉĻddÃ¼d": 5011,
      "Ġyarar": 5012,
      "ĠtÉĻrÉĻfindÉĻ": 5013,
      "oviÃ§in": 5014,
      "yot": 5015,
      "Ġkatonun": 5016,
      "Ġkatnis": 5017,
      "ĠdÃ¼zÃ¼nÃ¼": 5018,
      "Ġqoh": 5019,
      "Ġqopar": 5020,
      "ĠoÄŁru": 5021,
      "ĠgÃ¶stÉĻrib": 5022,
      "Ã§Ä±sÄ±": 5023,
      "Ġpulla": 5024,
      "ĠqÉĻrq": 5025,
      "Ġsaatdan": 5026,
      "Ġuinstonu": 5027,
      "aÄŁÄ±n": 5028,
      "ĠqaÃ§dÄ±": 5029,
      "ĠqaÃ§maÄŁa": 5030,
      "dilmiÅŁ": 5031,
      "ĠizlÉĻri": 5032,
      "ĠizlÉĻyir": 5033,
      "ĠinanÄ±rdÄ±": 5034,
      "Ġinanmaq": 5035,
      "mirlÉĻr": 5036,
      "ĠmÉĻrmÉĻr": 5037,
      "dÄ±qda": 5038,
      "Ġbiridir": 5039,
      "ĠaÄŁappaq": 5040,
      "ÉĻlÉĻrdÉĻn": 5041,
      "ĠsoruÅŁuram": 5042,
      "ĠnÉĻfÉĻsi": 5043,
      "onunda": 5044,
      "ĠoxÅŁa": 5045,
      "Ġcingil": 5046,
      "Ġprimin": 5047,
      "ĠedÉĻndÉĻ": 5048,
      "ĠyatdÄ±": 5049,
      "ĠgÃ¶rdÃ¼y": 5050,
      "ĠeÅŁitmÉĻk": 5051,
      "ĠeÅŁitdim": 5052,
      "ĠyayÄ±ldÄ±": 5053,
      "ĠkeÃ§irirdi": 5054,
      "ĠqÄ±rp": 5055,
      "ĠqÄ±rÄ±ÅŁ": 5056,
      "ĠdÉĻyiÅŁdir": 5057,
      "ĠotaÄŁÄ±n": 5058,
      "ĠayaÄŁÄ±": 5059,
      "ĠgeymiÅŁ": 5060,
      "ĠvÉĻziyyÉĻtÉĻ": 5061,
      "ĠvÉĻziyyÉĻtdÉĻn": 5062,
      "ĠdinmÉĻz": 5063,
      "ĠaltÄ±ndakÄ±": 5064,
      "ĠdÃ¶ndÉĻr": 5065,
      "ĠdiqqÉĻti": 5066,
      "ĠmÉĻÅŁq": 5067,
      "ĠfyodoroviÃ§in": 5068,
      "ĠsÉĻbÉĻbi": 5069,
      "ĠyadÄ±nda": 5070,
      "Ġpisdir": 5071,
      "Ġduydu": 5072,
      "ĠqÉĻtiyyÉĻt": 5073,
      "ĠsÉĻhnÉĻ": 5074,
      "Ġyuxuda": 5075,
      "ĠyÃ¼ksÉĻl": 5076,
      "ĠnataÅŁanÄ±": 5077,
      "Ġovuc": 5078,
      "Ã¶zÃ¼mÉĻ": 5079,
      "ĠqollarÄ±nÄ±": 5080,
      "ĠzÉĻrif": 5081,
      "ĠhÉĻqiqÉĻtdir": 5082,
      "ĠyaÅŁaya": 5083,
      "ĠaÄŁacÄ±n": 5084,
      "ĠaÄŁacdan": 5085,
      "ĠistÉĻyirsÉĻn": 5086,
      "ĠÃ¼midsizlik": 5087,
      "ĠÉĻhat": 5088,
      "ĠbaxÄ±ÅŁdan": 5089,
      "ĠoÄŁlanlar": 5090,
      "ĠuzanmÄ±ÅŁdÄ±": 5091,
      "ĠhÉĻyÉĻt": 5092,
      "ĠgedÉĻcÉĻyÉĻm": 5093,
      "Ġfikrim": 5094,
      "ĠbÉĻdÉĻninin": 5095,
      "ĠgÃ¶zlÉĻmÉĻk": 5096,
      "ĠtÉĻÉĻccÃ¼blÉĻ": 5097,
      "ĠcÉĻhÉĻnn": 5098,
      "ĠcÉĻhÉĻtdÉĻn": 5099,
      "ĠparÃ§asÄ±": 5100,
      "Ä±ltÄ±sÄ±": 5101,
      "ĠqÉĻribÉĻdir": 5102,
      "Ġenli": 5103,
      "ĠsifÉĻtinin": 5104,
      "Ġ10": 5105,
      "Ġ19": 5106,
      "Ġmasloboyev": 5107,
      "ĠÃ§arpaz": 5108,
      "ĠyellÉĻ": 5109,
      "ĠyellÉĻdi": 5110,
      "ĠnÃ¶vbÉĻti": 5111,
      "Ġbayra": 5112,
      "Ġqalacaq": 5113,
      "ĠiÅŁÄ±qlÄ±": 5114,
      "ĠyaÅŁayan": 5115,
      "ĠtÉĻÅŁki": 5116,
      "ĠtÉĻÅŁviÅŁ": 5117,
      "ĠyarandÄ±": 5118,
      "Ġitirib": 5119,
      "ĠkÃ¶rpÉĻ": 5120,
      "larÄ±mla": 5121,
      "ĠalÃ§aldÄ±": 5122,
      "ĠoÄŁlunu": 5123,
      "ĠoÄŁlum": 5124,
      "ĠÃ¼rÉĻyimi": 5125,
      "ĠtÉĻlÉĻsmÉĻdÉĻn": 5126,
      "xananÄ±n": 5127,
      "xanada": 5128,
      "Ġsirr": 5129,
      "Ġsirli": 5130,
      "ĠtÉĻqdir": 5131,
      "ĠoxÅŁar": 5132,
      "ĠtÉĻbÉĻq": 5133,
      "Ä±mÄ±za": 5134,
      "ĠsÉĻp": 5135,
      "Ġisrar": 5136,
      "Ġuydur": 5137,
      "ĠÉĻhÉĻmiyyÉĻti": 5138,
      "ĠedÉĻrdim": 5139,
      "ĠxoÅŁbÉĻxtlikdÉĻn": 5140,
      "Ġklini": 5141,
      "ĠqadÄ±na": 5142,
      "ĠolmazdÄ±": 5143,
      "ĠhaymiÃ§in": 5144,
      "ĠsarsÄ±": 5145,
      "brayenin": 5146,
      "ĠÅŁÃ¼ur": 5147,
      "ĠbalÄ±q": 5148,
      "ĠdÄ±rmaÅŁ": 5149,
      "ĠhÃ¼cr": 5150,
      "ĠÃ¶ncÉĻ": 5151,
      "ĠdodaqlarÄ±": 5152,
      "Ġtoxundu": 5153,
      "Ġkonk": 5154,
      "ĠmÉĻnzÉĻrÉĻ": 5155,
      "ĠoyanÄ±b": 5156,
      "Ġqoxu": 5157,
      "ĠtÉĻcili": 5158,
      "ĠbasdÄ±": 5159,
      "ĠinsanÄ±n": 5160,
      "ĠÃ¼zvlÉĻri": 5161,
      "Ġqabaqcadan": 5162,
      "qanc": 5163,
      "ĠqiymÉĻtlÉĻndir": 5164,
      "vanovnanÄ±n": 5165,
      "Ġstulun": 5166,
      "ĠhirslÉĻn": 5167,
      "ĠacÄ±ÄŁÄ±": 5168,
      "mayacaÄŁam": 5169,
      "ĠnÉĻyin": 5170,
      "ĠÃ¼syan": 5171,
      "Ġholms": 5172,
      "ĠyÄ±xÄ±l": 5173,
      "Ġekr": 5174,
      "ĠmÃ¼vÉĻqq": 5175,
      "ĠpaltarÄ±": 5176,
      "ĠkÉĻlmÉĻ": 5177,
      "Ġkorid": 5178,
      "ĠarÄ±larÄ±n": 5179,
      "ĠÉĻynindÉĻ": 5180,
      "pÉĻrvÉĻr": 5181,
      "ĠqÉĻhvÉĻ": 5182,
      "ĠortasÄ±nda": 5183,
      "ĠandlÄ±": 5184,
      "ĠmÉĻÄŁrur": 5185,
      "ĠtÉĻsadÃ¼fÉĻn": 5186,
      "ĠvatikanÄ±n": 5187,
      "ĠpÄ±Ã§Ä±ldadÄ±": 5188,
      "Ġdediyini": 5189,
      "ĠhakimiyyÉĻti": 5190,
      "ĠpillÉĻkÉĻnlÉĻ": 5191,
      "ĠbÄ±Ã§aÄŁÄ±": 5192,
      "Ġobyekt": 5193,
      "Ġmiusov": 5194,
      "ĠerkÉĻn": 5195,
      "Ġbayraq": 5196,
      "Ġbayram": 5197,
      "Ġplakat": 5198,
      "ĠbaÅŁlÄ±ca": 5199,
      "ĠbaÅŁlÄ±casÄ±": 5200,
      "ĠmÃ¼haf": 5201,
      "ĠmÃ¼haki": 5202,
      "Ġxadim": 5203,
      "ĠaramsÄ±z": 5204,
      "Ġrafto": 5205,
      "Ġqutu": 5206,
      "Ġmebel": 5207,
      "ĠtÃ¶rÉĻt": 5208,
      "Ġprimi": 5209,
      "ĠbaÅŁqasÄ±": 5210,
      "ĠamansÄ±z": 5211,
      "ĠÉĻrazi": 5212,
      "ĠxÉĻstÉĻliyi": 5213,
      "ĠgicÉĻl": 5214,
      "ĠvÉĻsait": 5215,
      "umuzu": 5216,
      "ĠkÃ¼lÉĻk": 5217,
      "ĠqaÅŁqabaqlÄ±": 5218,
      "ĠrÉĻÄŁbÉĻt": 5219,
      "ĠquyruÄŁunu": 5220,
      "ĠiÅŁgÉĻncÉĻ": 5221,
      "ĠeÅŁidirÉĻm": 5222,
      "tenant": 5223,
      "ĠÅŁokola": 5224,
      "ĠmaÄŁara": 5225,
      "ĠqÄ±sqanc": 5226,
      "ĠmÃ¼qÉĻssir": 5227,
      "ĠlÉĻzzÉĻt": 5228,
      "ĠqÉĻmgin": 5229,
      "ĠmÄ±zÄ±l": 5230,
      "ĠgÃ¼zg": 5231,
      "ĠÃ¼fun": 5232,
      "Ġcamaat": 5233,
      "ĠstÉĻkan": 5234,
      "ĠgÃ¼lÃ¼msÃ¼ndÃ¼": 5235,
      "Ġmakginti": 5236,
      "Ġkreslos": 5237,
      "Ġskamyada": 5238,
      "ĠbirtÉĻhÉĻr": 5239,
      "Ġpaisi": 5240,
      "ĠÉĻleyhinÉĻ": 5241,
      "ĠlÃ¼tf": 5242,
      "ĠarvadÄ±m": 5243,
      "qnatyevna": 5244,
      "Ġbratt": 5245,
      "ĠnisbÉĻtÉĻn": 5246,
      "Ġdeyilik": 5247,
      "Ġingilis": 5248,
      "Ġleytenant": 5249,
      "Ġparsons": 5250,
      "ĠmÉĻsafÉĻ": 5251,
      "ĠmÉĻtbuat": 5252,
      "ĠxoÅŁagÉĻlmÉĻz": 5253,
      "boÄŁaz": 5254,
      "ĠmÉĻyus": 5255,
      "ĠfÉĻlak": 5256,
      "Ġfantastik": 5257,
      "ĠÃ¶lkÉĻnin": 5258,
      "ĠmÃ¼vÉĻqqÉĻti": 5259,
      "amiz": 5260,
      "bn": 5261,
      "bit": 5262,
      "bÃ¼t": 5263,
      "caboy": 5264,
      "der": 5265,
      "dÃ¼ÅŁ": 5266,
      "daraq": 5267,
      "dÃ¶r": 5268,
      "fer": 5269,
      "get": 5270,
      "hÉĻr": 5271,
      "kÉĻk": 5272,
      "ket": 5273,
      "klÉĻrinÉĻ": 5274,
      "kerin": 5275,
      "kapit": 5276,
      "lor": 5277,
      "lok": 5278,
      "mÉĻrÉĻm": 5279,
      "muram": 5280,
      "nin": 5281,
      "nÄ±n": 5282,
      "oda": 5283,
      "qdan": 5284,
      "qÄ±z": 5285,
      "qol": 5286,
      "sil": 5287,
      "sveÃ§rÉĻli": 5288,
      "tiz": 5289,
      "tÉĻlÉĻ": 5290,
      "tinin": 5291,
      "tana": 5292,
      "udÉĻ": 5293,
      "va": 5294,
      "vey": 5295,
      "vÉĻsindÉĻ": 5296,
      "yov": 5297,
      "Ġ2": 5298,
      "ĠÉĻrÉĻ": 5299,
      "ĠÉĻti": 5300,
      "ÉĻdir": 5301,
      "ÉĻvi": 5302,
      "Ã¼d": 5303,
      "Ã¼Ã§": 5304,
      "Ġbol": 5305,
      "Ġdan": 5306,
      "Ġdmitr": 5307,
      "lÉĻdiyi": 5308,
      "ÉĻntiq": 5309,
      "Ã§an": 5310,
      "Ã§ÉĻnd": 5311,
      "Ġsini": 5312,
      "ĠsinÉĻ": 5313,
      "Ġsub": 5314,
      "ĠsÃ¼t": 5315,
      "ĠsÄ±ra": 5316,
      "Ġqub": 5317,
      "ĠqÉĻdÉĻ": 5318,
      "Ġqida": 5319,
      "Ġaq": 5320,
      "ĠalÉĻm": 5321,
      "ĠyÄ±ÄŁÄ±l": 5322,
      "Ġhe": 5323,
      "Ġhel": 5324,
      "Ġhole": 5325,
      "ĠhiddÉĻt": 5326,
      "Ġiyi": 5327,
      "ĠkÃ¼b": 5328,
      "Ġkras": 5329,
      "ÄŁÉĻm": 5330,
      "ÄŁum": 5331,
      "Ġvida": 5332,
      "ĠvÉĻtÉĻn": 5333,
      "Ġvayn": 5334,
      "lardÄ±r": 5335,
      "lav": 5336,
      "mamasÄ±": 5337,
      "Ġedam": 5338,
      "Ġter": 5339,
      "ĠtÉĻy": 5340,
      "ĠtanÄ±n": 5341,
      "Ġtay": 5342,
      "mÉĻmÉĻsi": 5343,
      "dÉĻtÉĻ": 5344,
      "ĠÃ§a": 5345,
      "ĠÃ§ÉĻn": 5346,
      "lisÉĻ": 5347,
      "mili": 5348,
      "ĠkisÉĻ": 5349,
      "Ġnur": 5350,
      "ĠnÉĻrdi": 5351,
      "ern": 5352,
      "erey": 5353,
      "ÉĻsti": 5354,
      "illoviÃ§": 5355,
      "ura": 5356,
      "ĠdÉĻf": 5357,
      "ĠmÉĻnasÄ±": 5358,
      "ĠmÉĻnalÄ±": 5359,
      "ĠmÉĻntiq": 5360,
      "ĠgÃ¶lmÉĻ": 5361,
      "âĢĻ": 5362,
      "izm": 5363,
      "yak": 5364,
      "yas": 5365,
      "yaz": 5366,
      "Ġoluna": 5367,
      "Ġolunub": 5368,
      "Ġdad": 5369,
      "ĠdalaÅŁ": 5370,
      "Ġpl": 5371,
      "ĠplaÅŁ": 5372,
      "Ġport": 5373,
      "onda": 5374,
      "onax": 5375,
      "Ä±ÅŁma": 5376,
      "Ä±ÅŁÄ±q": 5377,
      "stÉĻ": 5378,
      "steyn": 5379,
      "stasiya": 5380,
      "ĠÃ¶r": 5381,
      "ĠÃ¶lÉĻcÉĻk": 5382,
      "ĠbulaÅŁ": 5383,
      "Ġbubn": 5384,
      "dirsÉĻ": 5385,
      "Ã¼rÉĻk": 5386,
      "ĠÅŁaqq": 5387,
      "ĠÅŁiddÉĻt": 5388,
      "Ġcil": 5389,
      "Ġciz": 5390,
      "ĠcÄ±z": 5391,
      "ĠcÃ¼t": 5392,
      "ĠcanlÄ±": 5393,
      "ĠcÉĻnn": 5394,
      "ĠetmÉĻdÉĻn": 5395,
      "ĠetmÉĻmiÅŁdi": 5396,
      "ĠxÄ±ÅŁ": 5397,
      "ĠÉĻx": 5398,
      "asir": 5399,
      "asaÃ§": 5400,
      "enÉĻ": 5401,
      "dÄ±rlar": 5402,
      "ĠgÃ¶rmÃ¼ÅŁ": 5403,
      "ĠgÃ¶rmÉĻmiÅŁÉĻm": 5404,
      "ĠgÃ¶rmÃ¼rdÃ¼": 5405,
      "Ġfet": 5406,
      "ĠfaÅŁ": 5407,
      "Ġfenya": 5408,
      "ĠnÉĻÄŁ": 5409,
      "Ġsala": 5410,
      "Ġsalam": 5411,
      "ĠdeyÉĻndÉĻ": 5412,
      "ĠdeyÉĻcÉĻk": 5413,
      "Ġbildiyi": 5414,
      "Ġanti": 5415,
      "ĠanlayÄ±ram": 5416,
      "Ġarak": 5417,
      "ĠaraÅŁdÄ±r": 5418,
      "Ä±zda": 5419,
      "Ġuot": 5420,
      "Ġalman": 5421,
      "Ġallah": 5422,
      "olun": 5423,
      "oloq": 5424,
      "ĠmÃ¼ÉĻm": 5425,
      "larÄ±mÄ±z": 5426,
      "ĠdesÉĻm": 5427,
      "isinÉĻ": 5428,
      "ĠinanÄ±n": 5429,
      "ĠverirdilÉĻr": 5430,
      "ĠvermiÅŁÉĻm": 5431,
      "abas": 5432,
      "maqla": 5433,
      "Ġsonunda": 5434,
      "ĠzÉĻnc": 5435,
      "ĠzalÄ±n": 5436,
      "ĠÃ¼Ã§Ã¼": 5437,
      "ĠhÉĻrf": 5438,
      "ĠhÉĻrÃ§ÉĻnd": 5439,
      "ĠlazÄ±": 5440,
      "Ġlayla": 5441,
      "Ġlaqey": 5442,
      "uÅŁdur": 5443,
      "ĠgÃ¶zlÉĻrindÉĻ": 5444,
      "caÄŁÄ±na": 5445,
      "ĠdÃ¼ÅŁÉĻr": 5446,
      "ĠdÃ¼ÅŁmÉĻk": 5447,
      "Ä±blar": 5448,
      "liklÉĻr": 5449,
      "liklÉĻri": 5450,
      "ĠqarasaÃ§": 5451,
      "lÉĻnin": 5452,
      "lÉĻnmÉĻyÉĻ": 5453,
      "ĠelÉĻyir": 5454,
      "Ġro": 5455,
      "ĠrÃ¼t": 5456,
      "Ġriqq": 5457,
      "ĠistÉĻsÉĻ": 5458,
      "ĠistÉĻrdim": 5459,
      "Ġyerin": 5460,
      "ovanÄ±n": 5461,
      "ovul": 5462,
      "ĠhÉĻzz": 5463,
      "ĠbaxÄ±rdÄ±lar": 5464,
      "Ġbaxmadan": 5465,
      "ĠÅŁeytan": 5466,
      "ĠÅŁeytana": 5467,
      "Ġqalanda": 5468,
      "ĠgÉĻlmiÅŁÉĻm": 5469,
      "Ġsonralar": 5470,
      "Ã¼min": 5471,
      "Ã¼mlÉĻ": 5472,
      "Ã¼mdÉĻn": 5473,
      "ĠvarmÄ±ÅŁ": 5474,
      "Ġoldular": 5475,
      "ĠÉĻlli": 5476,
      "ĠÉĻlinin": 5477,
      "ĠÉĻlvi": 5478,
      "ĠÉĻllÉĻrimi": 5479,
      "ĠedirsÉĻn": 5480,
      "kinli": 5481,
      "rif": 5482,
      "tidar": 5483,
      "ĠolmamÄ±ÅŁam": 5484,
      "ĠgÃ¼nlÉĻri": 5485,
      "ĠgÃ¼nlÉĻrdÉĻ": 5486,
      "ĠaÄŁzÄ±": 5487,
      "ĠÃ¼zr": 5488,
      "ĠÃ¼zÉĻ": 5489,
      "ĠÃ¼zlÉĻÅŁ": 5490,
      "ĠÃ¼zÃ¼ndÉĻn": 5491,
      "ĠiÅŁinÉĻ": 5492,
      "miÅŁdim": 5493,
      "Ġgedim": 5494,
      "Ġaydan": 5495,
      "Ġadamla": 5496,
      "Ġadamlara": 5497,
      "ĠbiÃ§": 5498,
      "ĠbiÃ§in": 5499,
      "ladÄ±ÄŁÄ±": 5500,
      "Ġatan": 5501,
      "ĠatlarÄ±n": 5502,
      "ĠatÄ±rdÄ±": 5503,
      "ĠatanÄ±n": 5504,
      "ĠatasÄ±ndan": 5505,
      "ĠatanÄ±z": 5506,
      "Ġonlarla": 5507,
      "iÅŁlÉĻ": 5508,
      "ĠvaxtÄ±nda": 5509,
      "Ġle": 5510,
      "ĠlÃ¶vh": 5511,
      "ĠqÄ±zlar": 5512,
      "ĠÉĻsr": 5513,
      "ĠyanÄ±mda": 5514,
      "ĠÃ§ÉĻkmÉĻyÉĻ": 5515,
      "ĠÃ§ÉĻkirÉĻm": 5516,
      "ĠÃ§ÉĻkmÉĻdÉĻn": 5517,
      "Ġdoda": 5518,
      "ĠolarkÉĻn": 5519,
      "ĠdÉĻrd": 5520,
      "vana": 5521,
      "ĠdanÄ±ÅŁma": 5522,
      "ĠdanÄ±ÅŁÄ±q": 5523,
      "ĠdanÄ±ÅŁdÄ±m": 5524,
      "ĠÃ¶lÃ¼b": 5525,
      "ĠÃ¶lkÉĻ": 5526,
      "tÉĻq": 5527,
      "ĠaÃ§ar": 5528,
      "ĠaÃ§Ä±ram": 5529,
      "Ġgetdiyi": 5530,
      "Ġgetdiyini": 5531,
      "ĠÉĻvvÉĻla": 5532,
      "ĠildÉĻ": 5533,
      "Ġildir": 5534,
      "Ġqoyuram": 5535,
      "Ã¼rdÃ¼lÉĻr": 5536,
      "mizdÉĻ": 5537,
      "ĠbÃ¶yÃ¼mÃ¼ÅŁ": 5538,
      "ĠtÉĻslim": 5539,
      "Ġtutaq": 5540,
      "Ġtuturdu": 5541,
      "ĠtutmasÄ±": 5542,
      "ĠbaÄŁÄ±rdÄ±": 5543,
      "ĠbaÄŁlan": 5544,
      "ÅŁaf": 5545,
      "ĠfikirlÉĻr": 5546,
      "larÄ±nÄ±z": 5547,
      "Ġsevimli": 5548,
      "ÉĻdÉĻk": 5549,
      "ĠbaÅŁqalarÄ±": 5550,
      "ĠbaÅŁqalarÄ±nÄ±n": 5551,
      "cÉĻyim": 5552,
      "ĠbarmaÄŁÄ±": 5553,
      "Ġevi": 5554,
      "ĠgÃ¶rÃ¼nmÉĻmiÅŁ": 5555,
      "iyada": 5556,
      "Ġyolun": 5557,
      "ĠkÉĻsilir": 5558,
      "ĠsÉĻslÉĻr": 5559,
      "ĠsÉĻslÉĻn": 5560,
      "mÉĻyinÉĻ": 5561,
      "mÉĻyÉĻrÉĻk": 5562,
      "ĠÉĻnÉĻnÉĻ": 5563,
      "Ġqapqara": 5564,
      "ĠedÉĻcÉĻyik": 5565,
      "ĠtezdÉĻn": 5566,
      "ĠsÃ¶ykÉĻy": 5567,
      "ĠgÃ¼lmÉĻli": 5568,
      "apolo": 5569,
      "Ġkatib": 5570,
      "ĠÃ§alÄ±n": 5571,
      "Ġqorxut": 5572,
      "ĠqorxmuÅŁ": 5573,
      "Ġqorxuram": 5574,
      "Ġqorxdum": 5575,
      "ĠdÃ¼zÉĻliÅŁ": 5576,
      "ĠdayanÄ±r": 5577,
      "Ġarxam": 5578,
      "ĠgÃ¶stÉĻrdiyi": 5579,
      "ĠkimdÉĻn": 5580,
      "Ġstan": 5581,
      "Ġstola": 5582,
      "mÉĻlisÉĻn": 5583,
      "ĠalyoÅŁanÄ±": 5584,
      "Ġitdi": 5585,
      "Ġitkin": 5586,
      "Ã§Ä±larÄ±": 5587,
      "adÉĻk": 5588,
      "ĠverdilÉĻr": 5589,
      "âĢĿ,": 5590,
      "ĠyaÅŁlarÄ±": 5591,
      "ĠsaatÄ±nÄ±": 5592,
      "Ġqurtara": 5593,
      "Ġqurtul": 5594,
      "ĠsaxlayÄ±rdÄ±": 5595,
      "ĠyaxÄ±nlarda": 5596,
      "ĠyaxÄ±nlÄ±ÄŁÄ±nda": 5597,
      "Ġuinstona": 5598,
      "Ġoturur": 5599,
      "ayaÄŁa": 5600,
      "ĠnÉĻzarÉĻti": 5601,
      "ĠaparÄ±rdÄ±": 5602,
      "ĠaparÄ±b": 5603,
      "ĠaparmaÄŁa": 5604,
      "ĠgÃ¼cÃ¼ylÉĻ": 5605,
      "ĠqaÃ§a": 5606,
      "ĠqaÃ§Ä±r": 5607,
      "ĠqaÃ§araq": 5608,
      "Ġizi": 5609,
      "Ġinanma": 5610,
      "ĠinandÄ±r": 5611,
      "ĠqalxÄ±r": 5612,
      "mÉĻsÉĻm": 5613,
      "ĠhÉĻyatÄ±n": 5614,
      "ĠhÉĻyatÄ±nÄ±": 5615,
      "ĠinsanlarÄ±": 5616,
      "ilÉĻcÉĻk": 5617,
      "ĠqatÄ±": 5618,
      "ĠgÉĻtirir": 5619,
      "mÄ±sÄ±nÄ±z": 5620,
      "âĢ¦Â»": 5621,
      "ĠistÉĻdiyi": 5622,
      "ĠsÉĻrn": 5623,
      "ĠkarÄ±x": 5624,
      "ĠdeyirsÉĻn": 5625,
      "anacaq": 5626,
      "ĠoxÅŁam": 5627,
      "omobil": 5628,
      "omonax": 5629,
      "Ġpros": 5630,
      "ĠÃ¶ldÃ¼rmÉĻk": 5631,
      "ĠuÅŁaqlÄ±q": 5632,
      "ĠtÉĻhsil": 5633,
      "Ġyayda": 5634,
      "ĠyayÄ±lan": 5635,
      "Ġpod": 5636,
      "ĠpoÃ§": 5637,
      "Ġdolan": 5638,
      "ĠdÉĻyiÅŁmÉĻyÉĻ": 5639,
      "ĠasÄ±lmÄ±ÅŁdÄ±": 5640,
      "ĠfÉĻrz": 5641,
      "ĠsayÉĻsindÉĻ": 5642,
      "ĠsayÄ±lÄ±rdÄ±": 5643,
      "layÄ±rlar": 5644,
      "ott": 5645,
      "ĠdÃ¶nÉĻ": 5646,
      "ĠdÉĻyib": 5647,
      "ĠqapÄ±dan": 5648,
      "ĠqapÄ±sÄ±": 5649,
      "anÄ±mÄ±": 5650,
      "ĠmÃ¼ddÉĻtÉĻ": 5651,
      "ĠÃ§ÉĻtinliklÉĻ": 5652,
      "ĠolacaqdÄ±r": 5653,
      "ĠÉĻtrafda": 5654,
      "Ġyuxuya": 5655,
      "ĠminlÉĻrlÉĻ": 5656,
      "ĠÉĻzablÄ±": 5657,
      "ĠÉĻzabkeÅŁ": 5658,
      "Ġsoyun": 5659,
      "Ġqoluna": 5660,
      "ĠhavanÄ±": 5661,
      "Ġhavada": 5662,
      "ĠzÉĻrf": 5663,
      "ĠnÉĻzÉĻrlÉĻrini": 5664,
      "ĠxatÄ±rlaya": 5665,
      "ĠyaÅŁamaÄŁa": 5666,
      "ĠdÃ¶ydÃ¼": 5667,
      "Ġhadis": 5668,
      "Ġmaddi": 5669,
      "ĠÃ¼zÉĻrindÉĻki": 5670,
      "ĠdaÅŁÄ±n": 5671,
      "ĠaclÄ±q": 5672,
      "ĠacgÃ¶z": 5673,
      "ĠbaxÄ±ÅŁlarÄ±nÄ±": 5674,
      "ĠbilÉĻcÉĻyi": 5675,
      "ĠdÃ¼nyaya": 5676,
      "ĠgÉĻziÅŁ": 5677,
      "ĠgÃ¼nahÄ±": 5678,
      "ĠdÃ¶rdÃ¼nc": 5679,
      "Ġmaral": 5680,
      "ĠÅŁÉĻhÉĻrin": 5681,
      "ĠxÉĻrc": 5682,
      "ĠxÉĻrit": 5683,
      "Ġucbat": 5684,
      "ĠtÉĻÉĻccÃ¼blÉĻn": 5685,
      "ĠdalÄŁ": 5686,
      "rayÄ±": 5687,
      "ĠistÉĻmirdi": 5688,
      "ĠsualÄ±na": 5689,
      "Ġmeydanda": 5690,
      "ĠbÉĻsdir": 5691,
      "ĠdarÄ±x": 5692,
      "ĠxanÄ±mÄ±": 5693,
      "ĠetdiyindÉĻn": 5694,
      "Ġgecik": 5695,
      "Ġmaksim": 5696,
      "Ġsilin": 5697,
      "ĠsilsilÉĻ": 5698,
      "ĠgÃ¶rÃ¼ÅŁmÉĻk": 5699,
      "ĠburaxÄ±b": 5700,
      "ĠaxÄ±rÄ±na": 5701,
      "ĠaxÄ±rÄ±ncÄ±": 5702,
      "ĠsifÉĻtini": 5703,
      "ĠmÃ¶hÃ¼r": 5704,
      "Ġ12": 5705,
      "ĠlÉĻkÉĻ": 5706,
      "ĠmeÅŁÉĻ": 5707,
      "ĠmeÅŁÉĻyÉĻ": 5708,
      "ĠÃ§arpayÄ±nÄ±n": 5709,
      "Ġsneg": 5710,
      "ĠedilmiÅŁdi": 5711,
      "ĠdonuzlarÄ±n": 5712,
      "ĠimkanÄ±": 5713,
      "ĠÃ§aÄŁÄ±rÄ±r": 5714,
      "ĠyaranÄ±rdÄ±": 5715,
      "ĠsÉĻbÉĻbdÉĻn": 5716,
      "ĠkÃ¶rpÃ¼nÃ¼n": 5717,
      "ĠboÄŁ": 5718,
      "Ġsusurdu": 5719,
      "Ġelmin": 5720,
      "ĠÅŁÉĻrt": 5721,
      "ĠÅŁÉĻrait": 5722,
      "ĠuÃ§ub": 5723,
      "larÄ±mÄ±n": 5724,
      "Ġbitki": 5725,
      "Ġbitib": 5726,
      "ĠhÉĻdsiz": 5727,
      "ĠkitabÄ±": 5728,
      "ĠkitabÃ§": 5729,
      "ĠehtiyatlÄ±": 5730,
      "Ġquldur": 5731,
      "ĠtitrÉĻdi": 5732,
      "ĠqÉĻzÉĻbli": 5733,
      "Ġberker": 5734,
      "ĠkÃ¼rÉĻyi": 5735,
      "ĠÃ¶tÃ¼rdÃ¼": 5736,
      "Ġpolisin": 5737,
      "ĠxÉĻraclar": 5738,
      "ĠxÉĻraclarÄ±n": 5739,
      "ĠtanÄ±yÄ±rdÄ±": 5740,
      "ĠÃ¶pÃ¼ÅŁ": 5741,
      "ĠvaxtÄ±dÄ±r": 5742,
      "ĠÃ§evrildi": 5743,
      "ĠÉĻhÉĻmiyyÉĻtli": 5744,
      "ĠedÉĻrÉĻm": 5745,
      "ĠÃ¶rtÃ¼lmÃ¼ÅŁ": 5746,
      "ĠaxtarÄ±ÅŁ": 5747,
      "ĠaxtarÄ±b": 5748,
      "ĠbÉĻnzÉĻ": 5749,
      "ĠpÉĻrÉĻsti": 5750,
      "ÅŁÄ±rÄ±": 5751,
      "ĠpeÅŁman": 5752,
      "ĠdÃ¼ÅŁÃ¼rsÃ¼nÃ¼z": 5753,
      "ĠdÉĻrinlik": 5754,
      "ĠdÃ¼zÉĻlt": 5755,
      "Ġpabloya": 5756,
      "ĠyapÄ±ÅŁÄ±b": 5757,
      "Ġnadir": 5758,
      "ĠÅŁÃ¼ar": 5759,
      "ĠrÉĻhbÉĻrlik": 5760,
      "ĠehtiyacÄ±m": 5761,
      "Ġiclas": 5762,
      "Ġictimai": 5763,
      "Ġkomanda": 5764,
      "ĠuÄŁra": 5765,
      "ĠtÉĻpÉĻnin": 5766,
      "ĠmÉĻrhum": 5767,
      "ĠmÉĻrhumun": 5768,
      "Ġoxuyub": 5769,
      "ĠgÃ¶ndÉĻrdi": 5770,
      "ĠmÃ¼nasibÉĻtdÉĻ": 5771,
      "ĠlÉĻnÉĻtÉĻ": 5772,
      "Ġsezilirdi": 5773,
      "ĠgÃ¼lÉĻrÉĻk": 5774,
      "mamÄ±ÅŁdan": 5775,
      "Ġarabir": 5776,
      "ĠÃ¼zvÃ¼": 5777,
      "ĠgedirdilÉĻr": 5778,
      "ĠvaxtaÅŁÄ±rÄ±": 5779,
      "Ġqriqorinin": 5780,
      "ĠqiymÉĻti": 5781,
      "ĠqiymÉĻtli": 5782,
      "Ġstulda": 5783,
      "ĠqazanmÄ±ÅŁdÄ±": 5784,
      "ĠkÃ¼ncdÉĻ": 5785,
      "ĠkÃ¼ncÃ¼ndÉĻ": 5786,
      "ĠcÉĻmisi": 5787,
      "ĠgÃ¼nÉĻÅŁin": 5788,
      "ĠmÉĻxsus": 5789,
      "ĠbeynindÉĻ": 5790,
      "ĠkÉĻdÉĻrli": 5791,
      "Ġsiyasi": 5792,
      "ĠkirayÉĻ": 5793,
      "ĠkirilloviÃ§": 5794,
      "ĠkÉĻllÉĻ": 5795,
      "ĠkÃ¼tbeyin": 5796,
      "ĠcÉĻmiyyÉĻtin": 5797,
      "ĠolmadÄ±ÄŁÄ±ndan": 5798,
      "ĠaÄŁlÄ±ma": 5799,
      "ĠgedÉĻndÉĻ": 5800,
      "ĠkÃ¶ks": 5801,
      "ĠtapÅŁÄ±rÄ±ÄŁÄ±": 5802,
      "ĠÉĻyninÉĻ": 5803,
      "ĠkÉĻndli": 5804,
      "ĠqÉĻhrÉĻm": 5805,
      "Ġyorul": 5806,
      "ĠbatÄ±r": 5807,
      "Ġpetr": 5808,
      "ĠdÃ¼ÅŁÃ¼nÃ¼rsÃ¼nÃ¼z": 5809,
      "Ġehtiram": 5810,
      "ĠtitrÉĻyirdi": 5811,
      "Ġvacibdir": 5812,
      "ĠmÉĻlÉĻk": 5813,
      "ĠhÃ¼ndÃ¼rÉĻ": 5814,
      "Ġbuxara": 5815,
      "ĠyataÄŁÄ±na": 5816,
      "ĠgÃ¶zÉĻgÃ¶r": 5817,
      "Ġrakelin": 5818,
      "ĠeÅŁidÉĻndÉĻ": 5819,
      "ĠtÉĻzÉĻcÉĻ": 5820,
      "ĠÃ§iyninÉĻ": 5821,
      "ĠbÉĻnzÉĻr": 5822,
      "Ġmoskvada": 5823,
      "giltÉĻrÉĻ": 5824,
      "ĠpÄ±Ã§Ä±lda": 5825,
      "ĠgÃ¶rÃ¼rsÉĻn": 5826,
      "ĠÃ¶zÃ¼nÃ¼zÃ¼": 5827,
      "ĠqruÅŁenkanÄ±": 5828,
      "qustin": 5829,
      "Ġjur": 5830,
      "ĠbÄ±Ã§aq": 5831,
      "ĠsÄ±ÄŁÄ±na": 5832,
      "Ġgurult": 5833,
      "ĠÅŁÃ¶b": 5834,
      "ĠÅŁÃ¶h": 5835,
      "Ġcumdu": 5836,
      "ĠcÉĻlbedici": 5837,
      "ĠtapanÃ§anÄ±": 5838,
      "mÃ¼ÉĻyyÉĻn": 5839,
      "ĠmÃ¼bariz": 5840,
      "Ġraftonun": 5841,
      "Ġkapitolda": 5842,
      "ĠmÉĻtbÉĻxdÉĻ": 5843,
      "ĠtÃ¶rÉĻdi": 5844,
      "Ġpapapolo": 5845,
      "ĠÃ¶lÃ§Ã¼": 5846,
      "ĠÃ¼nvan": 5847,
      "ĠdumanlÄ±": 5848,
      "Ġgicgah": 5849,
      "ĠnorveÃ§": 5850,
      "Ġnahar": 5851,
      "ĠzillÉĻdi": 5852,
      "ĠrÉĻsmi": 5853,
      "ĠhÉĻyata": 5854,
      "ĠhÉĻyasÄ±z": 5855,
      "ĠayrÄ±l": 5856,
      "ĠmaraqlandÄ±rmÄ±rdÄ±": 5857,
      "ĠkilsÉĻyÉĻ": 5858,
      "llÃ¼min": 5859,
      "ĠbÉĻyan": 5860,
      "Ġiqtidar": 5861,
      "ĠedilÉĻn": 5862,
      "Ġbalacaboy": 5863,
      "ĠxasiyyÉĻt": 5864,
      "sayaÄŁÄ±": 5865,
      "ĠparisdÉĻ": 5866,
      "ĠsÉĻbirsiz": 5867,
      "Ġavtomobil": 5868,
      "Ġnazirliyinin": 5869,
      "nsanlar": 5870,
      "Ġlise": 5871,
      "Ġduqlas": 5872,
      "Ġtikili": 5873,
      "ĠÃ¶yrÉĻ": 5874,
      "ĠyastÄ±q": 5875,
      "ĠÉĻclaf": 5876,
      "ĠÉĻqli": 5877,
      "Ġincit": 5878,
      "Ġzosim": 5879,
      "Ġzahiri": 5880,
      "Ġlampa": 5881,
      "ĠvasilyeviÃ§": 5882,
      "ĠbÉĻxt": 5883,
      "Ġyekun": 5884,
      "Ġhasar": 5885,
      "ĠbacÄ±sÄ±": 5886,
      "Ġxarab": 5887,
      "ĠistÉĻsÉĻlÉĻr": 5888,
      "Ġqalmaqal": 5889,
      "ĠnÃ¶qt": 5890,
      "ĠbÃ¼zÃ¼ÅŁ": 5891,
      "ĠhiylÉĻgÉĻr": 5892,
      "ĠqadaÄŁan": 5893,
      "Ġfiziki": 5894,
      "Ġistisna": 5895,
      "Ġqrafinya": 5896,
      "Ġokeaniya": 5897,
      "ĠkÃ¶nÃ¼llÃ¼": 5898,
      "ngles": 5899,
      "xmenev": 5900,
      "Ġhekay": 5901,
      "ĠnaminÉĻ": 5902,
      "ĠÉĻfsan": 5903,
      "ĠmÃ¼lkÉĻdar": 5904,
      "Ġinstink": 5905,
      "Ġvariant": 5906,
      "ĠtÉĻrbiyÉĻ": 5907,
      "ĠmÉĻrasim": 5908,
      "ĠduyÄŁusu": 5909,
      "Ġideal": 5910,
      "ĠsÉĻviyy": 5911,
      "ĠdÃ¶ÅŁÉĻmÉĻdÉĻ": 5912,
      "ĠsiyahÄ±": 5913,
      "ĠyaraÅŁÄ±qlÄ±": 5914,
      "Ġlizav": 5915,
      "ĠbÉĻÅŁÉĻr": 5916,
      "lÉĻyici": 5917,
      "ĠqÉĻlbÉĻ": 5918,
      "Ġkandarda": 5919,
      "ĠtÃ¼pÃ¼r": 5920,
      "ĠdÉĻftÉĻr": 5921,
      "Ġpilkin": 5922,
      "Ġbuyur": 5923,
      "ĠÅŁaxta": 5924,
      "Ġciha": 5925,
      "ĠfÄ±ndÄ±q": 5926,
      "ĠfÃ¼rsÉĻt": 5927,
      "ĠmÃ¼stÉĻntiq": 5928,
      "Ġintiqam": 5929,
      "Ġqohum": 5930,
      "ĠmÃ¼hakimÉĻ": 5931,
      "bÃ¼tÃ¼n": 5932,
      "dÃ¶rd": 5933,
      "Ġsinif": 5934,
      "ĠkÃ¼bar": 5935,
      "ÄŁÉĻmbÉĻr": 5936,
      "ĠtÉĻyyar": 5937,
      "ĠarakÉĻs": 5938,
      "Ġuotson": 5939,
      "ĠlazÄ±mi": 5940,
      "Ġlaqeyd": 5941,
      "ĠÉĻlvida": 5942,
      "ĠÉĻnÉĻnÉĻvi": 5943,
      "ĠucbatÄ±ndan": 5944,
      "Ġsnegir": 5945,
      "ĠpÉĻrÉĻstiÅŁ": 5946,
      "ĠgÃ¶zÉĻgÃ¶rÃ¼n": 5947,
      "Ġpapapolous": 5948,
      "!-": 5949,
      "aÉĻt": 5950,
      "ayi": 5951,
      "boy": 5952,
      "biÃ§": 5953,
      "ciy": 5954,
      "cÉĻsi": 5955,
      "dun": 5956,
      "dÃ¼nÃ¼z": 5957,
      "dsteyn": 5958,
      "emi": 5959,
      "eta": 5960,
      "hud": 5961,
      "klÉĻr": 5962,
      "kinÉĻ": 5963,
      "kinin": 5964,
      "karÄ±": 5965,
      "lki": 5966,
      "lonun": 5967,
      "ms": 5968,
      "mus": 5969,
      "mÃ¼s": 5970,
      "mÃ¼q": 5971,
      "nes": 5972,
      "nqilab": 5973,
      "omat": 5974,
      "port": 5975,
      "prav": 5976,
      "ron": 5977,
      "rim": 5978,
      "rÉĻti": 5979,
      "runda": 5980,
      "sos": 5981,
      "sir": 5982,
      "sor": 5983,
      "sindÉĻn": 5984,
      "senin": 5985,
      "svik": 5986,
      "tat": 5987,
      "tol": 5988,
      "tÉĻz": 5989,
      "uj": 5990,
      "ux": 5991,
      "uda": 5992,
      "ula": 5993,
      "ucu": 5994,
      "vin": 5995,
      "varÄ±": 5996,
      "yal": 5997,
      "yim": 5998,
      "yum": 5999,
      "yuk": 6000,
      "zdir": 6001,
      "Ġ4": 6002,
      "Ġ5": 6003,
      "ĠÉĻri": 6004,
      "ÉĻlÉĻrini": 6005,
      "Ġbon": 6006,
      "ĠbÉĻx": 6007,
      "ÅŁÉĻn": 6008,
      "ÅŁÉĻk": 6009,
      "arx": 6010,
      "arÄ±q": 6011,
      "ariÅŁ": 6012,
      "ardÄ±m": 6013,
      "arÉĻtli": 6014,
      "andÄ±r": 6015,
      "Ġdox": 6016,
      "ingiltÉĻrÉĻ": 6017,
      "iradi": 6018,
      "Ġof": 6019,
      "Ġocaq": 6020,
      "ÉĻndÉĻn": 6021,
      "ÉĻnmiÅŁ": 6022,
      "Ã§aq": 6023,
      "Ã§unun": 6024,
      "Ġsti": 6025,
      "ĠsiÃ§": 6026,
      "ĠsÃ¼bh": 6027,
      "ĠsÃ¼f": 6028,
      "Ġsiyir": 6029,
      "diham": 6030,
      "Ã¶l": 6031,
      "Ġqurdu": 6032,
      "Ġqanda": 6033,
      "Ġqiya": 6034,
      "ĠqÉĻÅŁ": 6035,
      "Ġqert": 6036,
      "Ġmo": 6037,
      "Ġmur": 6038,
      "Ġmik": 6039,
      "Ġmol": 6040,
      "Ġmara": 6041,
      "Ġmav": 6042,
      "Ġmaqn": 6043,
      "ĠgilÉĻm": 6044,
      "Ġaqustin": 6045,
      "Ġyaq": 6046,
      "Ġyon": 6047,
      "Ġilahi": 6048,
      "Ġke": 6049,
      "Ġko": 6050,
      "Ġkost": 6051,
      "Ġkaf": 6052,
      "dÄ±ÄŁÄ±ndan": 6053,
      "Ġvel": 6054,
      "dad": 6055,
      "dal": 6056,
      "lak": 6057,
      "lasa": 6058,
      "lamadan": 6059,
      "mac": 6060,
      "unt": 6061,
      "Ġeli": 6062,
      "Ġendi": 6063,
      "Ġtib": 6064,
      "ĠtÃ¼l": 6065,
      "ĠtÉĻlÉĻn": 6066,
      "Ġtrin": 6067,
      "ĠtÃ¶r": 6068,
      "ĠtanÄ±m": 6069,
      "Ġtort": 6070,
      "ĠtÉĻyin": 6071,
      "lÉĻrsÉĻ": 6072,
      "ĠÃ§ÉĻm": 6073,
      "ĠÃ§Ä±l": 6074,
      "ĠÃ§ub": 6075,
      "ĠÃ§ax": 6076,
      "ÉĻtinÉĻ": 6077,
      "ĠbirindÉĻn": 6078,
      "ĠbirgÉĻ": 6079,
      "eyvÉĻ": 6080,
      "ĠkiÅŁ": 6081,
      "Ġney": 6082,
      "altÄ±": 6083,
      "ilya": 6084,
      "ĠbaÄŁa": 6085,
      "ĠmÉĻnb": 6086,
      "ĠmÉĻnasÄ±nÄ±": 6087,
      "yaÄŁÄ±": 6088,
      "Ġolsam": 6089,
      "ÉĻlli": 6090,
      "ĠdaÄŁ": 6091,
      "ĠdayanÄ±n": 6092,
      "ÉĻmir": 6093,
      "ÉĻmmÉĻt": 6094,
      "ÉĻmÉĻnin": 6095,
      "Ġpus": 6096,
      "ĠpÉĻhr": 6097,
      "ĠâĢĿ": 6098,
      "ont": 6099,
      "Ä±ÅŁa": 6100,
      "staq": 6101,
      "ĠÃ¶sk": 6102,
      "ĠbugÃ¼n": 6103,
      "diri": 6104,
      "ĠyazÄ±r": 6105,
      "Ġyamac": 6106,
      "ÉĻydi": 6107,
      "ÉĻyinin": 6108,
      "ĠÅŁe": 6109,
      "ĠÅŁÄ±r": 6110,
      "ĠÅŁÉĻf": 6111,
      "ĠÅŁka": 6112,
      "ĠÅŁadam": 6113,
      "lÄ±ÄŁÄ±ndan": 6114,
      "Ä±nÄ±b": 6115,
      "Ġcor": 6116,
      "Ġcaz": 6117,
      "ĠcÃ¼mÉĻ": 6118,
      "ĠcanÄ±na": 6119,
      "kib": 6120,
      "kidÉĻ": 6121,
      "ĠetmÉĻdi": 6122,
      "Ġetmisiniz": 6123,
      "ĠbaÅŁlayÄ±rdÄ±": 6124,
      "ĠbaÅŁlayacaq": 6125,
      "ĠbaÅŁlayanda": 6126,
      "Ġxud": 6127,
      "Ġxalat": 6128,
      "ĠÉĻliylÉĻ": 6129,
      "end": 6130,
      "enaya": 6131,
      "ĠgÃ¶rÉĻk": 6132,
      "ĠgÃ¶rmÃ¼r": 6133,
      "ĠgÃ¶rÃ¼nÃ¼b": 6134,
      "Ġqalar": 6135,
      "Ġfar": 6136,
      "Ġfin": 6137,
      "ĠfÉĻn": 6138,
      "Ġfit": 6139,
      "ĠsaÄŁa": 6140,
      "ĠdeyÉĻrdi": 6141,
      "ĠbilirdilÉĻr": 6142,
      "sÉĻda": 6143,
      "Ġanlay": 6144,
      "Ġanadan": 6145,
      "Ġanlarda": 6146,
      "Ġanlam": 6147,
      "Ġanlama": 6148,
      "ĠanlÄ±ÄŁa": 6149,
      "Ġarz": 6150,
      "ĠarasÄ±": 6151,
      "Ġuca": 6152,
      "ĠalÄ±ram": 6153,
      "ĠalmasÄ±": 6154,
      "ĠaludÉĻ": 6155,
      "ibil": 6156,
      "ÉĻhrayÄ±": 6157,
      "ĠmÃ¼f": 6158,
      "ĠmÃ¼lay": 6159,
      "ĠmÃ¼tÉĻ": 6160,
      "ĠmÃ¼asir": 6161,
      "ĠmÃ¼lki": 6162,
      "isini": 6163,
      "isiya": 6164,
      "isÉĻyÉĻ": 6165,
      "Ġveril": 6166,
      "Ġverst": 6167,
      "ĠvermÉĻyi": 6168,
      "Ġvermirdi": 6169,
      "ĠverÉĻcÉĻyi": 6170,
      "Ġvertol": 6171,
      "ÉĻdd": 6172,
      "Ġsonu": 6173,
      "etr": 6174,
      "Ġzin": 6175,
      "ĠgÃ¶zlÉĻr": 6176,
      "ĠgÃ¶zlÉĻrindÉĻn": 6177,
      "ĠgÃ¶zÃ¼mÉĻ": 6178,
      "ĠgÃ¶zÃ¼mÃ¼": 6179,
      "ĠdÃ¼ÅŁÃ¼nÃ¼": 6180,
      "ĠdÃ¼ÅŁmÉĻmiÅŁdi": 6181,
      "ĠdÃ¼ÅŁmÃ¼r": 6182,
      "ulub": 6183,
      "ayan": 6184,
      "iyib": 6185,
      "iyent": 6186,
      "Ġbeli": 6187,
      "ĠqarÅŁ": 6188,
      "Ġqarabas": 6189,
      "ĠelÉĻdi": 6190,
      "ĠelÉĻcÉĻ": 6191,
      "ĠelÉĻmÉĻk": 6192,
      "ĠrÉĻdd": 6193,
      "ĠistÉĻr": 6194,
      "Ġisterik": 6195,
      "ova": 6196,
      "Ä±mdan": 6197,
      "ĠhÉĻdiyyÉĻ": 6198,
      "Ġbaxa": 6199,
      "ĠbaxdÄ±m": 6200,
      "ĠbaxdÄ±ÄŁÄ±nÄ±": 6201,
      "ĠsÉĻnsÉĻ": 6202,
      "ĠÅŁeylÉĻ": 6203,
      "Ä±lÄ±ÅŁ": 6204,
      "ĠgÉĻlsÉĻ": 6205,
      "ĠgÉĻlmÉĻyÉĻ": 6206,
      "ĠgÉĻldiyi": 6207,
      "ĠgÉĻldiyimi": 6208,
      "ĠyaxÄ±ndan": 6209,
      "Ã¼mk": 6210,
      "Ã¼mÃ¼n": 6211,
      "Ã¼kÃ¼r": 6212,
      "ĠÃ§Ä±xmÄ±ÅŁ": 6213,
      "sidir": 6214,
      "ĠÉĻldÉĻn": 6215,
      "ĠÉĻllÉĻÅŁ": 6216,
      "sÄ±alÄ±n": 6217,
      "Ġyoxlamaq": 6218,
      "Ġyoxsul": 6219,
      "ĠbizdÉĻ": 6220,
      "Ġbunlara": 6221,
      "ÉĻdÉĻrÉĻk": 6222,
      "ÉĻliyi": 6223,
      "ĠetdikcÉĻ": 6224,
      "risti": 6225,
      "tilÉĻ": 6226,
      "Ġolmadan": 6227,
      "Ġolmayaraq": 6228,
      "ĠgÃ¼ndÃ¼z": 6229,
      "ÉĻcÉĻn": 6230,
      "ÉĻcik": 6231,
      "ĠaÄŁzÄ±m": 6232,
      "ĠÃ¼zÃ¼nÃ¼n": 6233,
      "ĠÃ¼zÃ¼mÉĻ": 6234,
      "ĠdeyilmiÅŁ": 6235,
      "ĠiÅŁlÉĻyir": 6236,
      "ĠiÅŁlÉĻyÉĻn": 6237,
      "ĠaxÄ±ÅŁ": 6238,
      "ĠayÄ±": 6239,
      "Ġbic": 6240,
      "Ġbilim": 6241,
      "ĠkeÃ§mÉĻyÉĻ": 6242,
      "sanÄ±z": 6243,
      "inizdÉĻn": 6244,
      "ladÄ±ÄŁÄ±nÄ±": 6245,
      "lÉĻÅŁdi": 6246,
      "lÉĻÅŁmiÅŁ": 6247,
      "sÉĻni": 6248,
      "ĠatasÄ±na": 6249,
      "muÅŁam": 6250,
      "Ġonlarda": 6251,
      "ĠvaxtÄ±ndan": 6252,
      "ĠvaxtÄ±mÄ±z": 6253,
      "Ġlep": 6254,
      "ĠqÄ±zÄ±l": 6255,
      "ĠqÄ±zÄ±nÄ±n": 6256,
      "ĠolduÄŁumuzu": 6257,
      "ĠÉĻski": 6258,
      "ĠyanÄ±nÄ±za": 6259,
      "ĠÃ§ÉĻkmirdi": 6260,
      "ĠyaxÅŁÄ±ca": 6261,
      "ĠkÃ¶ÅŁ": 6262,
      "ĠhÉĻmsÃ¶hbÉĻt": 6263,
      "ĠdanÄ±ÅŁmÄ±ÅŁam": 6264,
      "ĠiÃ§ir": 6265,
      "ĠiÃ§mÉĻk": 6266,
      "ĠÃ¶lmÃ¼ÅŁ": 6267,
      "Ġyaltaq": 6268,
      "Ġhamam": 6269,
      "Ġuzat": 6270,
      "tÉĻÅŁ": 6271,
      "ĠaÃ§maq": 6272,
      "ĠaÃ§Ä±lÄ±rdÄ±": 6273,
      "ĠgetmÉĻyi": 6274,
      "Ġikisini": 6275,
      "ÉĻsidir": 6276,
      "Ġill": 6277,
      "ĠildÉĻn": 6278,
      "ĠqoymuÅŁdu": 6279,
      "Ġqoymadan": 6280,
      "ĠÉĻvvÉĻlkit": 6281,
      "liyÉĻm": 6282,
      "liyyat": 6283,
      "ĠdÃ¼ÅŁÃ¼nmÃ¼ÅŁdÃ¼": 6284,
      "Ġray": 6285,
      "Ġradi": 6286,
      "ĠbÃ¶yÃ¼r": 6287,
      "Ġtutma": 6288,
      "ĠtutduÄŁu": 6289,
      "Ġtutqun": 6290,
      "ĠmÉĻhÉĻl": 6291,
      "ĠmÉĻhsul": 6292,
      "ĠmÉĻhdud": 6293,
      "ĠbaÄŁÄ±r": 6294,
      "larÄ±nÄ±zÄ±": 6295,
      "Ġharasa": 6296,
      "ĠhisslÉĻri": 6297,
      "ĠqarÅŁÄ±sÄ±alÄ±n": 6298,
      "ĠtapÅŁ": 6299,
      "ĠtapmÄ±ÅŁdÄ±": 6300,
      "ĠtapmaÄŁa": 6301,
      "uzadÄ±": 6302,
      "ÉĻdÉĻki": 6303,
      "Ġbilmirdim": 6304,
      "ĠbilmÉĻrik": 6305,
      "ĠdilÉĻn": 6306,
      "ĠevdÉĻki": 6307,
      "iyyÉĻtÉĻ": 6308,
      "ĠistÉĻyÉĻndÉĻ": 6309,
      "ĠtÉĻkid": 6310,
      "ĠtÉĻkÉĻbb": 6311,
      "Ġyoldan": 6312,
      "Ġyoluna": 6313,
      "ĠhalÄ±": 6314,
      "ĠkÉĻsb": 6315,
      "ĠdoÄŁurdu": 6316,
      "ĠÃ§atÄ±ÅŁ": 6317,
      "ĠqapaÄŁÄ±nÄ±": 6318,
      "ĠaltÄ±nÄ±": 6319,
      "ĠmÉĻsum": 6320,
      "ĠyardÄ±m": 6321,
      "ĠburadadÄ±r": 6322,
      "ĠgÃ¼lÃ¼b": 6323,
      "ĠtÉĻrÉĻfdÉĻ": 6324,
      "ĠtÉĻrÉĻfini": 6325,
      "apont": 6326,
      "ĠdÉĻqiqlÉĻÅŁdir": 6327,
      "ĠcavabÄ±nda": 6328,
      "ĠkatyanÄ±n": 6329,
      "Ġqorxur": 6330,
      "Ġqorxub": 6331,
      "Ġqorxmuram": 6332,
      "Ġqoya": 6333,
      "ĠqoÃ§aq": 6334,
      "mÉĻtdÉĻ": 6335,
      "ĠÉĻzÉĻ": 6336,
      "Ġarxada": 6337,
      "Ġarxaya": 6338,
      "ĠgÃ¶stÉĻriÅŁ": 6339,
      "ĠgÃ¶stÉĻrÉĻrÉĻk": 6340,
      "ĠgÃ¶stÉĻrirlÉĻr": 6341,
      "ĠsalÄ±r": 6342,
      "ĠsalmÄ±ÅŁdÄ±": 6343,
      "ĠkimlÉĻ": 6344,
      "mÉĻlisiniz": 6345,
      "Ã§Ä±ya": 6346,
      "ĠyemÉĻyi": 6347,
      "adÉĻt": 6348,
      "biri": 6349,
      "ĠdÃ¼nyanÄ±": 6350,
      "ĠsaatÄ±n": 6351,
      "Ġsaxta": 6352,
      "ĠsaxlayÄ±b": 6353,
      "ĠyaxÄ±nlÄ±qda": 6354,
      "ĠqadÄ±nlara": 6355,
      "Ġsuala": 6356,
      "ĠxoÅŁlayÄ±ram": 6357,
      "ndisÉĻ": 6358,
      "karlÄ±q": 6359,
      "Ã¼yÃ¼": 6360,
      "Ġaparmaq": 6361,
      "ĠapardÄ±lar": 6362,
      "ĠaparÄ±rdÄ±lar": 6363,
      "azin": 6364,
      "Ġheyvanlara": 6365,
      "Ġfyodorov": 6366,
      "ĠqaÃ§Ä±ÅŁ": 6367,
      "ĠqaÃ§dÄ±m": 6368,
      "ĠhaqqÄ±nÄ±zda": 6369,
      "ĠinanÄ±ram": 6370,
      "ĠinandÄ±rÄ±cÄ±": 6371,
      "ĠqalxmaÄŁa": 6372,
      "mÉĻsindÉĻ": 6373,
      "Ġinsana": 6374,
      "Ġgizlin": 6375,
      "ĠeynÉĻyini": 6376,
      "mirsÉĻn": 6377,
      "tÄ±sÄ±": 6378,
      "Ġqatara": 6379,
      "ĠtÉĻlÉĻyÉĻ": 6380,
      "ĠgirÉĻndÉĻ": 6381,
      "Ġpula": 6382,
      "ĠgÉĻtirmiÅŁdi": 6383,
      "oblem": 6384,
      "ĠistÉĻdim": 6385,
      "ĠhazÄ±rlanmÄ±ÅŁ": 6386,
      "ĠsÉĻrin": 6387,
      "ĠÃ¶zÃ¼mdÉĻn": 6388,
      "ĠÃ¶zÃ¼mÃ¼z": 6389,
      "Ġmeyson": 6390,
      "ĠcÃ¼rbÉĻc": 6391,
      "Ġvurur": 6392,
      "Ġvuraraq": 6393,
      "ĠÅŁÉĻkli": 6394,
      "Ġoxum": 6395,
      "Ġqrey": 6396,
      "Ġproq": 6397,
      "Ġproblem": 6398,
      "ĠyazmÄ±ÅŁam": 6399,
      "ĠÃ¶ldÃ¼rÃ¼lmÃ¼ÅŁ": 6400,
      "ĠÃ¶ldÃ¼rmÃ¼ÅŁÉĻm": 6401,
      "ĠedÉĻndÉĻn": 6402,
      "aksiya": 6403,
      "Ġmaraqla": 6404,
      "maÄŁÄ±ma": 6405,
      "Ġoluram": 6406,
      "ĠyayÄ±": 6407,
      "ĠkeÃ§irmÉĻk": 6408,
      "ĠqÄ±rÄ±ldÄ±": 6409,
      "ĠqÄ±rÄ±ntÄ±": 6410,
      "Ġpolad": 6411,
      "ĠgÉĻldilÉĻr": 6412,
      "ĠsÃ¶hbÉĻtlÉĻri": 6413,
      "ĠmÉĻsÉĻlÉĻdÉĻ": 6414,
      "ĠotaÄŁÄ±nÄ±n": 6415,
      "ĠasdÄ±": 6416,
      "ĠasÄ±rdÄ±": 6417,
      "ĠasÄ±lmÄ±ÅŁ": 6418,
      "ĠayaÄŁÄ±nda": 6419,
      "ĠayaÄŁÄ±m": 6420,
      "ĠsifariÅŁ": 6421,
      "Ġgeyinib": 6422,
      "ÄŁÄ±lcÄ±m": 6423,
      "ĠÉĻmri": 6424,
      "Ġdina": 6425,
      "Ġtopa": 6426,
      "Ġtopu": 6427,
      "Ġsaym": 6428,
      "ĠhÉĻqiqi": 6429,
      "ĠdÉĻqiqÉĻlik": 6430,
      "ĠgÃ¶zlÉĻyirdilÉĻr": 6431,
      "ĠaydÄ±nlaÅŁdÄ±r": 6432,
      "ĠdÉĻymirdi": 6433,
      "ĠetmÉĻyÉĻcÉĻk": 6434,
      "ĠdÃ¼ÅŁdÃ¼yÃ¼": 6435,
      "ĠdÃ¼ÅŁdÃ¼yÃ¼nÃ¼": 6436,
      "ĠmÉĻÅŁum": 6437,
      "ĠqapÄ±da": 6438,
      "ĠharadadÄ±r": 6439,
      "ĠfyodoroviÃ§ÉĻ": 6440,
      "ĠyuxarÄ±da": 6441,
      "Ã§ilÉĻri": 6442,
      "ĠsÄ±xÄ±r": 6443,
      "ĠgÉĻlÉĻcÉĻyÉĻm": 6444,
      "mÉĻnim": 6445,
      "Ġduyurdu": 6446,
      "ĠiÅŁÄ±ÄŁÄ±nda": 6447,
      "ĠbÃ¶lÃ¼n": 6448,
      "ĠqÄ±Ã§": 6449,
      "ĠqÄ±vr": 6450,
      "ĠqÄ±ÄŁÄ±lcÄ±m": 6451,
      "ĠmÃ¼qav": 6452,
      "ĠÉĻtrafÄ±na": 6453,
      "ĠÉĻtrafdakÄ±": 6454,
      "ĠsÉĻhÉĻrÉĻ": 6455,
      "ĠsÉĻhÉĻri": 6456,
      "Ġdostu": 6457,
      "ĠmÃ¶min": 6458,
      "Ġdurum": 6459,
      "ĠfermanÄ±": 6460,
      "Ġfernan": 6461,
      "Ġferapont": 6462,
      "ÉĻcÉĻyinÉĻ": 6463,
      "ĠrazÄ±lÄ±q": 6464,
      "Ġsoyu": 6465,
      "Ġqols": 6466,
      "Ġqoldsteyn": 6467,
      "Ġhavaya": 6468,
      "ĠÅŁÃ¼bhÉĻli": 6469,
      "ĠÅŁÃ¼bhÉĻsiz": 6470,
      "ĠzÉĻrb": 6471,
      "ĠxatÄ±rlayÄ±rdÄ±": 6472,
      "ĠyaÅŁadÄ±ÄŁÄ±": 6473,
      "Ġpitaya": 6474,
      "ĠmÉĻktubda": 6475,
      "ĠyetiÅŁ": 6476,
      "ĠistÉĻyirmiÅŁ": 6477,
      "Ġaciz": 6478,
      "ĠbaxÄ±ÅŁlarla": 6479,
      "ĠoÄŁlana": 6480,
      "ĠgecÉĻlÉĻr": 6481,
      "Ġuzaqda": 6482,
      "ĠqoyduÄŁu": 6483,
      "dÉĻsinÉĻ": 6484,
      "Ġgedirdim": 6485,
      "Ġmityaya": 6486,
      "musan": 6487,
      "lÉĻrimin": 6488,
      "siyaya": 6489,
      "ĠgÃ¼nahsÄ±z": 6490,
      "ĠbÉĻdÉĻnini": 6491,
      "ĠbÉĻdÉĻnim": 6492,
      "ĠmÃ¼hit": 6493,
      "ĠgÃ¶zlÉĻmirdi": 6494,
      "ĠqardaÅŁÄ±nÄ±n": 6495,
      "ĠdÃ¶ÅŁÉĻmÉĻnin": 6496,
      "ĠpartladÄ±": 6497,
      "Ġolmaqla": 6498,
      "lÉĻndirmiÅŁdi": 6499,
      "ĠdalÄŁÄ±n": 6500,
      "Ġikiniz": 6501,
      "ĠbacarÄ±": 6502,
      "ĠcÉĻhÉĻt": 6503,
      "ĠÃ¶lÃ¼mÃ¼": 6504,
      "ĠmeydanÄ±": 6505,
      "ĠparÃ§asÄ±nÄ±": 6506,
      "ĠfÉĻrqi": 6507,
      "ĠqÄ±ÅŁqÄ±rÄ±q": 6508,
      "ĠyÃ¼zlÉĻrlÉĻ": 6509,
      "ĠkaÄŁÄ±zÄ±": 6510,
      "ĠkaÄŁÄ±za": 6511,
      "Ġcani": 6512,
      "Ä±ltÄ±sÄ±nÄ±": 6513,
      "ĠetdiyinÉĻ": 6514,
      "ĠdivarÄ±n": 6515,
      "ĠaddÄ±mlarÄ±nÄ±": 6516,
      "Ġenir": 6517,
      "Ġener": 6518,
      "ĠnÉĻfÉĻrin": 6519,
      "ĠpaltarlarÄ±": 6520,
      "ĠhadisÉĻlÉĻrin": 6521,
      "acaqlar": 6522,
      "Ġiyer": 6523,
      "ĠaÄŁrÄ±dan": 6524,
      "ĠaÄŁrÄ±yÄ±r": 6525,
      "ĠaxÄ±ra": 6526,
      "ĠsifÉĻtindÉĻki": 6527,
      "Ġ11": 6528,
      "ĠdilinÉĻ": 6529,
      "ĠmeÅŁÉĻnin": 6530,
      "Ġkapel": 6531,
      "Ġkapita": 6532,
      "alanmÄ±ÅŁ": 6533,
      "ĠcordanÄ±n": 6534,
      "Ġandaca": 6535,
      "baÅŁÄ±na": 6536,
      "ĠnÃ¶vbÉĻ": 6537,
      "ĠtÉĻsirindÉĻn": 6538,
      "ĠbaÄŁÄ±ÅŁlayÄ±n": 6539,
      "ĠqayÄ±tmÄ±ÅŁdÄ±": 6540,
      "ĠiÅŁÄ±qlandÄ±r": 6541,
      "Ġdustaq": 6542,
      "ĠÉĻmÉĻliyyat": 6543,
      "landÄ±ra": 6544,
      "ĠmahiyyÉĻti": 6545,
      "ĠgÉĻrÉĻkdir": 6546,
      "lamat": 6547,
      "Ġtaxt": 6548,
      "ĠetmiÅŁdilÉĻr": 6549,
      "Ġbilmirsiniz": 6550,
      "ĠitirmiÅŁ": 6551,
      "Ġsmerdyakovun": 6552,
      "ĠboÄŁul": 6553,
      "ĠmÃ¶vz": 6554,
      "laÅŁÄ±q": 6555,
      "ĠÅŁÉĻrq": 6556,
      "ĠrÉĻhm": 6557,
      "Ġdoludur": 6558,
      "Ġbitir": 6559,
      "ĠqÉĻlbindÉĻ": 6560,
      "ĠqÃ¼vvÉĻt": 6561,
      "ĠqÃ¼vvÉĻtli": 6562,
      "ĠÉĻvÉĻzindÉĻ": 6563,
      "ĠoÄŁlunun": 6564,
      "qabaÄŁÄ±": 6565,
      "xanaya": 6566,
      "xanadan": 6567,
      "Ġsirri": 6568,
      "ĠdamcÄ±": 6569,
      "ĠyavaÅŁca": 6570,
      "ĠqurtardÄ±": 6571,
      "ĠÃ¼rÉĻkli": 6572,
      "imizi": 6573,
      "mÄ±rsÄ±nÄ±z": 6574,
      "sÉĻydim": 6575,
      "Ġbergen": 6576,
      "Ġdizi": 6577,
      "ĠsinÉĻsindÉĻ": 6578,
      "Ã¶nkÃ¼r": 6579,
      "Ġmanat": 6580,
      "ĠsaÃ§an": 6581,
      "ĠbilmÉĻdiyi": 6582,
      "ĠheyrÉĻtamiz": 6583,
      "ĠsÃ¶ylÉĻyÉĻ": 6584,
      "ĠaÅŁkara": 6585,
      "ĠkÃ¼rÉĻk": 6586,
      "ĠkÃ¼rÉĻy": 6587,
      "ĠÃ¶tÉĻn": 6588,
      "ĠÅŁÃ¼ÅŁÉĻlÉĻri": 6589,
      "ĠÃ¼rÉĻyinÉĻ": 6590,
      "ĠehtiyacÄ±": 6591,
      "Ġyataqdan": 6592,
      "ĠsÉĻda": 6593,
      "Ġisprav": 6594,
      "ĠqÉĻrarÄ±na": 6595,
      "ĠsoyuqqanlÄ±": 6596,
      "ĠÉĻhÉĻmiyyÉĻtsiz": 6597,
      "gÃ¼ndÃ¼z": 6598,
      "Ġdiksin": 6599,
      "ĠedÉĻrkÉĻn": 6600,
      "ĠbarmaqlarÄ±nÄ±": 6601,
      "ĠbarmaqlarÄ±nÄ±n": 6602,
      "ĠkÉĻnarÄ±nda": 6603,
      "ĠkÉĻnarÄ±na": 6604,
      "Ġmehra": 6605,
      "Ġcuhud": 6606,
      "ĠrÉĻqs": 6607,
      "omiya": 6608,
      "ĠsarÄŁÄ±": 6609,
      "Ġqovurdu": 6610,
      "ĠalÄ±nÄ±rdÄ±": 6611,
      "ĠmÉĻsÉĻlÉĻni": 6612,
      "ĠgizlÉĻtmÉĻyÉĻ": 6613,
      "ĠyapÄ±ÅŁdÄ±r": 6614,
      "ĠbÉĻdhey": 6615,
      "ĠdiÅŁlÉĻri": 6616,
      "ĠpitanÄ±": 6617,
      "ĠqÄ±zÄ±lÄ±": 6618,
      "ĠbaldÄ±r": 6619,
      "ĠqÉĻpik": 6620,
      "ĠmÃ¼ÅŁayi": 6621,
      "ĠhÉĻkimin": 6622,
      "ĠhissÉĻ": 6623,
      "Ġicra": 6624,
      "Ġetdirirdi": 6625,
      "ĠuÄŁrunda": 6626,
      "ĠoxÅŁayÄ±rdÄ±": 6627,
      "ĠgÃ¶ndÉĻrib": 6628,
      "ĠbÃ¼rÃ¼n": 6629,
      "Ġtikil": 6630,
      "Ġtikint": 6631,
      "ĠtÃ¶kÃ¼l": 6632,
      "ĠplanÄ±nÄ±": 6633,
      "ĠparÄ±ldayan": 6634,
      "ĠdirsÉĻk": 6635,
      "Ġdirektor": 6636,
      "ĠnÉĻyisÉĻ": 6637,
      "Ġaraba": 6638,
      "Ġrutun": 6639,
      "lÃ¼yÃ¼nÉĻ": 6640,
      "ĠyÄ±ÄŁdÄ±": 6641,
      "ĠeybÉĻc": 6642,
      "ĠpeyÄŁÉĻmbÉĻr": 6643,
      "ĠxÉĻyan": 6644,
      "ĠxÉĻstÉĻlÉĻn": 6645,
      "Ġfikrimi": 6646,
      "ĠhirslÉĻ": 6647,
      "ĠtÉĻmin": 6648,
      "ĠtÉĻmtÉĻr": 6649,
      "ĠnÉĻyÉĻsÉĻ": 6650,
      "ĠbaÅŁlanÄŁÄ±": 6651,
      "Ġburnunu": 6652,
      "Ġburnunun": 6653,
      "ĠÃ§atdÄ±rmaq": 6654,
      "Ġboynunu": 6655,
      "ĠmÉĻrkÉĻzinÉĻ": 6656,
      "ĠunutmuÅŁdu": 6657,
      "ĠmilyonÃ§u": 6658,
      "ĠquÅŁu": 6659,
      "Ġekran": 6660,
      "ĠzirvÉĻsindÉĻ": 6661,
      "Ġruye": 6662,
      "Ġruyeni": 6663,
      "ĠtutulmuÅŁ": 6664,
      "ĠsaxladÄ±ÄŁÄ±": 6665,
      "ĠkardinalÄ±n": 6666,
      "ĠsoÄŁan": 6667,
      "ĠkÃ¼tlÉĻnin": 6668,
      "ĠÉĻlaqÉĻdar": 6669,
      "ĠdemiÅŁdim": 6670,
      "ĠolmadÄ±ÄŁÄ±na": 6671,
      "ĠtanrÄ±m": 6672,
      "ĠyorÄŁun": 6673,
      "Ġbekkerin": 6674,
      "ĠibarÉĻtdir": 6675,
      "Ġsevirsiniz": 6676,
      "ĠqulaÄŁÄ±na": 6677,
      "ĠqulaÄŁÄ±m": 6678,
      "ĠqÄ±saca": 6679,
      "Ġmoskvaya": 6680,
      "ĠaralarÄ±nda": 6681,
      "Ġdetal": 6682,
      "ĠitÉĻlÉĻdi": 6683,
      "ĠitÉĻlÉĻyib": 6684,
      "ĠmÉĻktÉĻbdÉĻ": 6685,
      "ĠqruÅŁenkanÄ±n": 6686,
      "ĠqruÅŁenkaya": 6687,
      "ĠÃ§arpayÄ±ya": 6688,
      "ĠnÃ¶vbÉĻsindÉĻ": 6689,
      "ĠpillÉĻkÉĻnin": 6690,
      "ĠetibarilÉĻ": 6691,
      "Ġjest": 6692,
      "ĠdibinÉĻ": 6693,
      "ĠerkÃ¼l": 6694,
      "Ġplastik": 6695,
      "ĠcÉĻrg": 6696,
      "ĠgÃ¶rkÉĻmli": 6697,
      "ĠtapanÃ§a": 6698,
      "ĠevlÉĻnmÉĻk": 6699,
      "ĠqocanÄ±": 6700,
      "Ġodlu": 6701,
      "ĠÃ§antanÄ±": 6702,
      "ÉĻldÃ¶vlÉĻt": 6703,
      "ĠÃ¶mrÃ¼": 6704,
      "Ġforma": 6705,
      "ĠkeÃ§ÉĻndÉĻn": 6706,
      "ĠkÃ¶ynÉĻyi": 6707,
      "ĠmÉĻftun": 6708,
      "ĠzÉĻrurÉĻti": 6709,
      "ĠkupeyÉĻ": 6710,
      "ĠtÉĻlqin": 6711,
      "ĠtÃ¼stÃ¼": 6712,
      "ĠxÉĻya": 6713,
      "ĠxoxlakovanÄ±n": 6714,
      "ĠdeyilÉĻnÉĻ": 6715,
      "Ġaldatmaq": 6716,
      "ĠalÄ±ÅŁÄ±b": 6717,
      "ĠkÃ¶lgÉĻ": 6718,
      "ĠgizlÉĻdib": 6719,
      "ĠqabiliyyÉĻtini": 6720,
      "ĠÅŁÉĻkillÉĻr": 6721,
      "ĠmÃ¼haribÉĻdÉĻ": 6722,
      "ĠtÉĻbÉĻssÃ¼mlÉĻ": 6723,
      "osip": 6724,
      "Ġduman": 6725,
      "ĠmÉĻzÉĻmmÉĻt": 6726,
      "Ġkinli": 6727,
      "Ġnahaq": 6728,
      "ĠxaricÉĻ": 6729,
      "ĠalnÄ±nÄ±": 6730,
      "ĠalnÄ±na": 6731,
      "Ġreaksiya": 6732,
      "ĠnÉĻzakÉĻt": 6733,
      "Ġdinclik": 6734,
      "ĠnÉĻticÉĻsindÉĻ": 6735,
      "ĠrÉĻÄŁmÉĻn": 6736,
      "Ġpeterburqa": 6737,
      "Ġpeterburqda": 6738,
      "ĠsÉĻtir": 6739,
      "ĠgÉĻlÉĻrÉĻk": 6740,
      "Ġdivana": 6741,
      "ĠmÉĻrtÉĻbÉĻyÉĻ": 6742,
      "Ġavtomat": 6743,
      "ĠlovÄŁalan": 6744,
      "Ġbuynuzun": 6745,
      "Ġqumbara": 6746,
      "ĠyÄ±rÄŁa": 6747,
      "ĠtreÅŁ": 6748,
      "ĠbahalÄ±": 6749,
      "Ġzosima": 6750,
      "Ġlamp": 6751,
      "Ġkartof": 6752,
      "ĠyaddaÅŁÄ±nda": 6753,
      "ĠgÃ¼lÃ¼msÉĻyÉĻrÉĻk": 6754,
      "ĠbÉĻnzÉĻyirdi": 6755,
      "ĠÅŁlyapasÄ±nÄ±": 6756,
      "ĠfasilÉĻsiz": 6757,
      "fikirli": 6758,
      "Ġsimvol": 6759,
      "ĠsÉĻdr": 6760,
      "ĠhuÅŁunu": 6761,
      "ĠanbarÄ±n": 6762,
      "ĠgedÉĻrkÉĻn": 6763,
      "ĠboÄŁazÄ±nÄ±": 6764,
      "ĠetmÉĻliyik": 6765,
      "Ġrespublika": 6766,
      "Ġturist": 6767,
      "ĠÅŁÉĻrÉĻfinÉĻ": 6768,
      "ĠfÃ¶vqÉĻldÃ¶vlÉĻt": 6769,
      "ĠgÃ¶stÉĻrilÉĻn": 6770,
      "ĠifadÉĻni": 6771,
      "ĠmahiyyÉĻtini": 6772,
      "ĠistehzalÄ±": 6773,
      "ĠtÉĻlxÉĻk": 6774,
      "lyuÅŁa": 6775,
      "ĠaleksandroviÃ§": 6776,
      "ĠnarazÄ±lÄ±q": 6777,
      "hÉĻmin": 6778,
      "tÉĻbii": 6779,
      "Ġikrah": 6780,
      "ĠÃ§aÄŁÄ±rdÄ±": 6781,
      "Ġulduz": 6782,
      "Ġzidd": 6783,
      "ĠilgÉĻk": 6784,
      "ĠyetÉĻrincÉĻ": 6785,
      "Ġvalenok": 6786,
      "ĠrÃ¼svayÃ§Ä±": 6787,
      "dÃ¶nÉĻ": 6788,
      "yoldaÅŁ": 6789,
      "ĠdÃ¼rÃ¼st": 6790,
      "Ġkalqan": 6791,
      "Ġtex": 6792,
      "Ġnatiq": 6793,
      "ĠparaÅŁ": 6794,
      "ĠÅŁtabs": 6795,
      "ĠfahiÅŁÉĻ": 6796,
      "Ġintihar": 6797,
      "ĠziyafÉĻt": 6798,
      "Ġazorka": 6799,
      "Ġottersen": 6800,
      "Ġcingilti": 6801,
      "ĠcÉĻhÉĻnnÉĻm": 6802,
      "ĠtÉĻÅŁkilat": 6803,
      "ĠmÃ¼hafizÉĻ": 6804,
      "ĠÅŁokolad": 6805,
      "veyen": 6806,
      "Ġqubern": 6807,
      "ĠqÉĻdÉĻh": 6808,
      "Ġkrasot": 6809,
      "Ġvayner": 6810,
      "ĠdÉĻfn": 6811,
      "Ġcizgi": 6812,
      "Ġfetyuk": 6813,
      "ĠqarasaÃ§lÄ±": 6814,
      "ĠsÉĻrniÅŁin": 6815,
      "ĠacgÃ¶zlÃ¼klÉĻ": 6816,
      "Ġmaksimov": 6817,
      "ĠpetroviÃ§": 6818,
      "llÃ¼minati": 6819,
      "ĠiqtidarÄ±nda": 6820,
      "ĠsÉĻbirsizliklÉĻ": 6821,
      "ĠzosimanÄ±n": 6822,
      "Ġpilkinqton": 6823,
      "Ġcihaz": 6824,
      "Ġsnegiryov": 6825,
      "ĠgÃ¶zÉĻgÃ¶rÃ¼nmÉĻz": 6826,
      "mÃ¼qÉĻddÉĻs": 6827,
      "Ġstilist": 6828,
      "ĠqÉĻÅŁÉĻng": 6829,
      "ĠgilÉĻmeyvÉĻ": 6830,
      "Ġyaqut": 6831,
      "Ġvelosip": 6832,
      "Ġtrinket": 6833,
      "ĠÃ§ÉĻmÉĻn": 6834,
      "ĠÃ§ubuq": 6835,
      "ĠbugÃ¼nkÃ¼": 6836,
      "Ġcorc": 6837,
      "Ġxudbin": 6838,
      "ĠmÃ¼layim": 6839,
      "Ġlepsvik": 6840,
      "ĠÉĻvvÉĻlkitÉĻk": 6841,
      "ĠqarÅŁÄ±sÄ±alÄ±nmaz": 6842,
      "ĠtÉĻkÉĻbbÃ¼r": 6843,
      "ĠcÃ¼rbÉĻcÃ¼r": 6844,
      "Ġfernando": 6845,
      "ĠbÉĻdheybÉĻt": 6846,
      "ĠeybÉĻcÉĻr": 6847,
      "Ġquberniya": 6848,
      "?âĢĿ": 6849,
      "acÄ±": 6850,
      "acaÄŁÄ±nÄ±": 6851,
      "asta": 6852,
      "biq": 6853,
      "bax": 6854,
      "banÄ±": 6855,
      "bÉĻst": 6856,
      "cÄ±nÄ±": 6857,
      "ddÉĻ": 6858,
      "den": 6859,
      "dinin": 6860,
      "dÉĻri": 6861,
      "deyn": 6862,
      "dunuz": 6863,
      "dÃ¶vlÉĻt": 6864,
      "edil": 6865,
      "elis": 6866,
      "edad": 6867,
      "faq": 6868,
      "fim": 6869,
      "fiq": 6870,
      "fek": 6871,
      "gar": 6872,
      "gist": 6873,
      "gilÉĻ": 6874,
      "hesab": 6875,
      "ip": 6876,
      "iyi": 6877,
      "iver": 6878,
      "ixtiy": 6879,
      "jin": 6880,
      "kÉĻs": 6881,
      "ksi": 6882,
      "kaya": 6883,
      "kadan": 6884,
      "klÉĻrinin": 6885,
      "lini": 6886,
      "let": 6887,
      "mb": 6888,
      "mÄ±x": 6889,
      "nÉĻt": 6890,
      "nil": 6891,
      "nam": 6892,
      "niki": 6893,
      "oÃ§": 6894,
      "ota": 6895,
      "per": 6896,
      "puÅŁ": 6897,
      "paz": 6898,
      "qÉĻlÉĻ": 6899,
      "qÉĻh": 6900,
      "qram": 6901,
      "ret": 6902,
      "sÃ¶n": 6903,
      "sunuz": 6904,
      "syal": 6905,
      "tik": 6906,
      "tÄ±q": 6907,
      "tÄ±l": 6908,
      "tub": 6909,
      "tÉĻrÉĻm": 6910,
      "udi": 6911,
      "vÉĻn": 6912,
      "vit": 6913,
      "xur": 6914,
      "xilÉĻ": 6915,
      "xali": 6916,
      "yindÉĻn": 6917,
      "yÉĻni": 6918,
      "Ġ9": 6919,
      "Ġlif": 6920,
      "ÉĻdi": 6921,
      "ÉĻgÉĻr": 6922,
      "ÉĻfÉĻq": 6923,
      "Ä±s": 6924,
      "Ġbr": 6925,
      "ĠbÉĻh": 6926,
      "ĠbÄ±ÄŁ": 6927,
      "ÅŁÉĻ": 6928,
      "ÅŁÉĻr": 6929,
      "ÅŁÃ¼n": 6930,
      "ÅŁal": 6931,
      "ÅŁanlÄ±q": 6932,
      "ÅŁtub": 6933,
      "armÄ±ÅŁ": 6934,
      "arÄ±m": 6935,
      "artr": 6936,
      "arÄ±ÅŁÄ±q": 6937,
      "anla": 6938,
      "ĠdÃ¼": 6939,
      "Ġdis": 6940,
      "Ġdul": 6941,
      "ĠdÉĻniz": 6942,
      "inti": 6943,
      "inci": 6944,
      "lÉĻsÉĻ": 6945,
      "lÉĻsi": 6946,
      "lÉĻti": 6947,
      "irin": 6948,
      "irat": 6949,
      "irah": 6950,
      "irsÉĻn": 6951,
      "ÉĻnub": 6952,
      "Ã§Ä±x": 6953,
      "Ã§ada": 6954,
      "Ã§ÉĻri": 6955,
      "Ã§aya": 6956,
      "Ã§usu": 6957,
      "Ġsi": 6958,
      "ĠsÄ±z": 6959,
      "ĠsÃ¼l": 6960,
      "Ġsut": 6961,
      "ĠsÃ¼mÃ¼": 6962,
      "ĠsÉĻki": 6963,
      "Ġsiv": 6964,
      "Ġsfer": 6965,
      "diÅŁ": 6966,
      "dimi": 6967,
      "diklÉĻri": 6968,
      "Ġqlik": 6969,
      "ĠqÄ±l": 6970,
      "ĠqÉĻni": 6971,
      "Ġmor": 6972,
      "Ġmel": 6973,
      "Ġmod": 6974,
      "Ġmuj": 6975,
      "Ġgu": 6976,
      "ĠgÉĻli": 6977,
      "Ġgert": 6978,
      "Ġalar": 6979,
      "ĠaÅŁÄ±": 6980,
      "Ġasa": 6981,
      "ĠalÉĻt": 6982,
      "ĠailÉĻn": 6983,
      "Ġalaraq": 6984,
      "ĠadÉĻti": 6985,
      "ĠyÃ¼r": 6986,
      "ĠyÄ±ÄŁÄ±": 6987,
      "Ġhin": 6988,
      "Ġhov": 6989,
      "ÉĻrildÉĻ": 6990,
      "ÉĻrrÃ¼": 6991,
      "Ġixt": 6992,
      "Ġkr": 6993,
      "Ġker": 6994,
      "ĠkÉĻm": 6995,
      "Ġkad": 6996,
      "Ġkval": 6997,
      "ÄŁal": 6998,
      "Ġvin": 6999,
      "Ġvis": 7000,
      "Ġvad": 7001,
      "ĠvaÄŁ": 7002,
      "Ġvali": 7003,
      "Ġvadi": 7004,
      "lab": 7005,
      "laÄŁÄ±": 7006,
      "lamÄ±ÅŁ": 7007,
      "malarÄ±": 7008,
      "unn": 7009,
      "undakÄ±": 7010,
      "Ġep": 7011,
      "Ġtun": 7012,
      "ĠtuÅŁ": 7013,
      "Ġtic": 7014,
      "Ġtaqq": 7015,
      "lÉĻrkÉĻn": 7016,
      "mÉĻlÉĻr": 7017,
      "dÉĻm": 7018,
      "ĠÃ§Ä±q": 7019,
      "ĠÃ§aya": 7020,
      "ĠÃ§aÄŁÄ±": 7021,
      "ĠÃ§ÉĻhrayÄ±": 7022,
      "lil": 7023,
      "lizÉĻ": 7024,
      "Ġbiriniz": 7025,
      "Ġbirbir": 7026,
      "eyl": 7027,
      "ĠkimÉĻsÉĻ": 7028,
      "Ġnax": 7029,
      "alt": 7030,
      "alyan": 7031,
      "alovun": 7032,
      "eriya": 7033,
      "Ġbaci": 7034,
      "ĠdÉĻyÉĻn": 7035,
      "ĠmÉĻna": 7036,
      "ĠmÉĻnÉĻm": 7037,
      "ĠmÉĻnsiz": 7038,
      "ĠmÉĻntÉĻq": 7039,
      "ĠgÃ¶lÉĻ": 7040,
      "danÄ±": 7041,
      "yax": 7042,
      "ÉĻkdÉĻn": 7043,
      "Ġolum": 7044,
      "Ġolmurdu": 7045,
      "Ġolmus": 7046,
      "Ġdama": 7047,
      "Ġpop": 7048,
      "ĠpÉĻncÉĻ": 7049,
      "amma": 7050,
      "onal": 7051,
      "onlarÄ±n": 7052,
      "onsor": 7053,
      "Ä±ÅŁÄ±n": 7054,
      "ĠÃ¼m": 7055,
      "Ġbud": 7056,
      "ĠbuÄŁa": 7057,
      "Ġbulu": 7058,
      "Ġbutul": 7059,
      "Ã¼rlÉĻr": 7060,
      "atomiya": 7061,
      "ĠÅŁi": 7062,
      "ĠÅŁÉĻfÉĻq": 7063,
      "ĠÅŁartr": 7064,
      "lÄ±ÄŁÄ±n": 7065,
      "lÄ±ÄŁÄ±nÄ±n": 7066,
      "rak": 7067,
      "razÄ±": 7068,
      "Ġch": 7069,
      "Ġciy": 7070,
      "Ġcah": 7071,
      "ĠcanÄ±mÄ±": 7072,
      "ĠcÉĻnub": 7073,
      "kisi": 7074,
      "kiÅŁaf": 7075,
      "Ġetik": 7076,
      "ĠetmÉĻyib": 7077,
      "ĠetmÉĻlidir": 7078,
      "ĠbaÅŁlay": 7079,
      "ĠbaÅŁlayan": 7080,
      "ĠbaÅŁlayaraq": 7081,
      "Ġxx": 7082,
      "Ġxor": 7083,
      "ĠxÉĻf": 7084,
      "Ġxorla": 7085,
      "orta": 7086,
      "ĠÉĻha": 7087,
      "asÄ±nca": 7088,
      "dÄ±rÄ±r": 7089,
      "dÄ±rÄ±m": 7090,
      "dÄ±rÄ±l": 7091,
      "ĠgÃ¶rmÉĻdi": 7092,
      "ĠgÃ¶rmÃ¼rÉĻm": 7093,
      "ĠgÃ¶rÉĻcÉĻksÉĻn": 7094,
      "ĠqazÄ±": 7095,
      "Ġqalaca": 7096,
      "ĠfÉĻh": 7097,
      "Ġfili": 7098,
      "Ġfunt": 7099,
      "Ġsair": 7100,
      "Ġsalamat": 7101,
      "ĠbilsÉĻn": 7102,
      "Ġbildiyini": 7103,
      "Ġbildin": 7104,
      "ĠbilmÉĻlidir": 7105,
      "ĠbilsÉĻydim": 7106,
      "Ġandan": 7107,
      "ĠanÄ±nda": 7108,
      "Ġanama": 7109,
      "Ġantima": 7110,
      "Ġanatomiya": 7111,
      "yÉĻc": 7112,
      "yÉĻvi": 7113,
      "Ġarpa": 7114,
      "mÉĻkdÉĻ": 7115,
      "irdik": 7116,
      "ÉĻlÉĻk": 7117,
      "ÉĻlÉĻdi": 7118,
      "ĠuÅŁa": 7119,
      "Ġuduz": 7120,
      "Ġalan": 7121,
      "Ġalmadan": 7122,
      "ibÉĻt": 7123,
      "ĠmÃ¼ll": 7124,
      "ĠmÃ¼xali": 7125,
      "ĠÃ§oxunu": 7126,
      "caqsan": 7127,
      "Ġdel": 7128,
      "ĠdemÉĻ": 7129,
      "ĠdeÅŁik": 7130,
      "ĠinamÄ±": 7131,
      "Ġintiz": 7132,
      "ĠinkiÅŁaf": 7133,
      "ĠversÉĻ": 7134,
      "ĠverÉĻrÉĻk": 7135,
      "ĠvermÉĻli": 7136,
      "Ġverdin": 7137,
      "ĠvermÉĻdÉĻn": 7138,
      "ĠverÉĻndÉĻ": 7139,
      "Ġversin": 7140,
      "ĠverÉĻcÉĻyÉĻm": 7141,
      "Ġverdiyim": 7142,
      "ĠverÉĻcÉĻklÉĻr": 7143,
      "ĠverÉĻcÉĻyini": 7144,
      "maqarÄ±ÅŁÄ±q": 7145,
      "ĠidisÉĻ": 7146,
      "ĠzÉĻdÉĻ": 7147,
      "Ġzala": 7148,
      "ĠzillÉĻ": 7149,
      "ĠzÃ¶vq": 7150,
      "Ġzibil": 7151,
      "yih": 7152,
      "Ġlak": 7153,
      "ĠgÃ¶zÉĻt": 7154,
      "ĠgÃ¶zlÉĻdi": 7155,
      "ĠgÃ¶zÃ¼mÃ¼z": 7156,
      "caz": 7157,
      "caÄŁa": 7158,
      "caÄŁÄ±n": 7159,
      "ĠdÃ¼ÅŁmÉĻyÉĻ": 7160,
      "ĠdÃ¼ÅŁÃ¼nÃ¼b": 7161,
      "ayla": 7162,
      "ayaq": 7163,
      "ayÄ±b": 7164,
      "iyÉĻsi": 7165,
      "Ìĩ-": 7166,
      "likop": 7167,
      "lanaraq": 7168,
      "lanmaÄŁa": 7169,
      "landÄ±m": 7170,
      "landÄ±lar": 7171,
      "lanmasÄ±": 7172,
      "lÉĻnÉĻrÉĻk": 7173,
      "ĠelÉĻmi": 7174,
      "ĠsÃ¶v": 7175,
      "Ġrel": 7176,
      "ĠriÅŁ": 7177,
      "ĠistÉĻk": 7178,
      "ĠistÉĻsÉĻn": 7179,
      "Ġistirah": 7180,
      "iti": 7181,
      "itmÉĻk": 7182,
      "ĠkimisÉĻ": 7183,
      "Ġyeriy": 7184,
      "Ġyersiz": 7185,
      "ĠyerimdÉĻ": 7186,
      "ĠyerimdÉĻn": 7187,
      "ovlarÄ±n": 7188,
      "Ġbaxsa": 7189,
      "ublar": 7190,
      "ĠqalÄ±q": 7191,
      "ĠqaldÄ±m": 7192,
      "ĠqaldÄ±ÄŁÄ±nÄ±": 7193,
      "ĠqalmalÄ±": 7194,
      "ĠqalmadÄ±": 7195,
      "ĠqalmayÄ±b": 7196,
      "ĠqalmamÄ±ÅŁdÄ±": 7197,
      "ĠgÉĻlmirdi": 7198,
      "ĠgÉĻlmÉĻsini": 7199,
      "ĠgÉĻlmÉĻyÉĻcÉĻyÉĻm": 7200,
      "Ġyaxa": 7201,
      "Ã¼mdÉĻ": 7202,
      "salar": 7203,
      "salam": 7204,
      "Ġvaram": 7205,
      "ĠvarlÄ±q": 7206,
      "ĠÃ§Ä±xÄ±rdÄ±": 7207,
      "ĠÃ§Ä±xaraq": 7208,
      "ĠÃ§Ä±xmaÄŁa": 7209,
      "ĠÃ§Ä±xdÄ±ÄŁÄ±nÄ±": 7210,
      "ĠÃ§Ä±xmasÄ±": 7211,
      "ĠÃ§Ä±xacaq": 7212,
      "ĠÃ§Ä±xmÄ±r": 7213,
      "ÉĻzz": 7214,
      "ĠÉĻllÉĻrindÉĻ": 7215,
      "ĠedirmiÅŁ": 7216,
      "ĠbundadÄ±r": 7217,
      "layar": 7218,
      "ĠetdikdÉĻn": 7219,
      "umla": 7220,
      "umuÅŁ": 7221,
      "rid": 7222,
      "ĠolmaÄŁÄ±": 7223,
      "ĠolmasÄ±n": 7224,
      "ĠolmaÄŁÄ±m": 7225,
      "ĠgÃ¼nÉĻ": 7226,
      "ĠgÃ¼nÃ¼nÃ¼": 7227,
      "ĠgÃ¼ndÃ¼r": 7228,
      "ĠgÃ¼nter": 7229,
      "ĠgÃ¼norta": 7230,
      "ĠaÄŁlamaÄŁa": 7231,
      "avÉĻtli": 7232,
      "ĠdeyillÉĻr": 7233,
      "ĠiÅŁim": 7234,
      "ĠiÅŁlÉĻt": 7235,
      "miÅŁdik": 7236,
      "Ã¼ldÃ¼yÃ¼": 7237,
      "ĠdÃ¶yÉĻc": 7238,
      "ĠaxdÄ±ÄŁÄ±nÄ±": 7239,
      "eldÉĻ": 7240,
      "ĠayÄ±q": 7241,
      "Ġadamdan": 7242,
      "Ġadamlarla": 7243,
      "ĠadamsÄ±nÄ±z": 7244,
      "ĠbÃ¼tÃ¼nlÃ¼klÉĻ": 7245,
      "Ġyeniy": 7246,
      "Ġbilib": 7247,
      "ĠkeÃ§dilÉĻr": 7248,
      "ĠkeÃ§mÉĻmiÅŁ": 7249,
      "ladÄ±lar": 7250,
      "ĠatÄ±n": 7251,
      "ĠatÄ±r": 7252,
      "ĠatamÄ±": 7253,
      "iÅŁar": 7254,
      "Ġvaxtdan": 7255,
      "ĠvaxtÄ±nÄ±": 7256,
      "Ġvaxtlarda": 7257,
      "ĠazdÄ±r": 7258,
      "ĠazÄ±ndan": 7259,
      "ĠotelÉĻ": 7260,
      "ĠqÄ±zÄ±ÅŁ": 7261,
      "ĠqÄ±zÄ±m": 7262,
      "ĠqÄ±zÄ±nÄ±z": 7263,
      "ĠqÄ±zardÄ±": 7264,
      "ĠolduÄŁunun": 7265,
      "ĠÉĻsla": 7266,
      "ĠÉĻsgin": 7267,
      "ĠyanÄ±rdÄ±": 7268,
      "ĠyanÄ±b": 7269,
      "ĠÃ§ÉĻkmiÅŁdi": 7270,
      "ĠÃ§ÉĻkdiyi": 7271,
      "ĠÃ§ÉĻkirdilÉĻr": 7272,
      "ĠÃ§ÉĻkirlÉĻr": 7273,
      "usun": 7274,
      "ĠsÃ¶zÃ¼n": 7275,
      "ĠsÃ¶zlÉĻrinin": 7276,
      "ĠsÃ¶zÃ¼mÃ¼": 7277,
      "ĠsÃ¶zsÃ¼z": 7278,
      "Ġolaram": 7279,
      "ĠyaxÅŁÄ±lÄ±q": 7280,
      "ĠhÉĻmkar": 7281,
      "ĠdanÄ±ÅŁÄ±b": 7282,
      "ĠdanÄ±ÅŁmÄ±ÅŁdÄ±": 7283,
      "ĠdanÄ±ÅŁÄ±ram": 7284,
      "ĠdanÄ±ÅŁdÄ±ÄŁÄ±nÄ±": 7285,
      "ĠdanÄ±ÅŁÄ±rsÄ±nÄ±z": 7286,
      "ĠiÃ§i": 7287,
      "ĠiÃ§irÉĻm": 7288,
      "ĠÃ¶ldÃ¼": 7289,
      "ĠÃ¶ldÃ¼rdÃ¼": 7290,
      "ezv": 7291,
      "fÉĻÅŁanlÄ±q": 7292,
      "Ġyalandan": 7293,
      "ĠhaÃ§an": 7294,
      "Ġuzunu": 7295,
      "ĠuzaÄŁa": 7296,
      "ĠuzadÄ±r": 7297,
      "diyinin": 7298,
      "diyyat": 7299,
      "ĠmÉĻdÉĻn": 7300,
      "tÉĻfiq": 7301,
      "Ġgetsin": 7302,
      "Ġikimiz": 7303,
      "Ġikiqat": 7304,
      "ĠillÉĻrin": 7305,
      "ĠqoymadÄ±": 7306,
      "ĠÉĻvvÉĻlkindÉĻn": 7307,
      "liyyÉĻ": 7308,
      "mÉĻzac": 7309,
      "Ġheylor": 7310,
      "ĠdÃ¼ÅŁÃ¼nmÉĻyÉĻ": 7311,
      "ĠdÃ¼ÅŁÃ¼nmÉĻdÉĻn": 7312,
      "ĠdÃ¼ÅŁÃ¼nmÃ¼rÉĻm": 7313,
      "ĠbÃ¶yÃ¼dÃ¼": 7314,
      "Ġtutar": 7315,
      "ĠmÉĻhb": 7316,
      "ĠmÉĻhl": 7317,
      "ĠmÉĻhru": 7318,
      "ĠbaÄŁÃ§": 7319,
      "luÄŁunu": 7320,
      "ĠfikirdÉĻ": 7321,
      "ĠhisslÉĻr": 7322,
      "ĠhissinÉĻ": 7323,
      "ĠhissÉĻsinÉĻ": 7324,
      "ĠhissÉĻsinin": 7325,
      "ĠsevÉĻn": 7326,
      "ĠsevmÉĻk": 7327,
      "ĠqarÅŁÄ±m": 7328,
      "ĠqarÅŁÄ±lÄ±qlÄ±": 7329,
      "ĠtapÄ±l": 7330,
      "ĠbaÅŁqalarÄ±ndan": 7331,
      "Ġbarma": 7332,
      "ĠbarÉĻmdÉĻ": 7333,
      "ĠeÅŁÉĻlÉĻn": 7334,
      "Ġdilim": 7335,
      "Ġdiaqn": 7336,
      "Ġevli": 7337,
      "Ġevinin": 7338,
      "Ġmagist": 7339,
      "ĠgÃ¶rÃ¼nt": 7340,
      "ĠgÃ¶rÃ¼nsÉĻ": 7341,
      "ĠgÃ¶rÃ¼nmÉĻz": 7342,
      "ĠbÃ¶yÃ¼klÉĻr": 7343,
      "ĠtÉĻkÉĻr": 7344,
      "ĠtÉĻkbaÅŁÄ±na": 7345,
      "ĠolacaÄŁÄ±q": 7346,
      "iyasÄ±nÄ±": 7347,
      "Ġyolunu": 7348,
      "ĠkÉĻsil": 7349,
      "ĠkÉĻsik": 7350,
      "ĠkÉĻsib": 7351,
      "ĠkÉĻsmiÅŁdi": 7352,
      "ĠkÉĻsildi": 7353,
      "sinizmi": 7354,
      "ĠsÉĻsindÉĻ": 7355,
      "ĠsÉĻslÉĻrini": 7356,
      "ĠdoÄŁma": 7357,
      "ĠdoÄŁra": 7358,
      "mÉĻyini": 7359,
      "ĠÃ§atÄ±b": 7360,
      "Ġqapaq": 7361,
      "Ġyenidil": 7362,
      "uyur": 7363,
      "uyub": 7364,
      "Ã¼cÃ¼": 7365,
      "ĠtÉĻrc": 7366,
      "ĠtÉĻravÉĻtli": 7367,
      "ĠedÉĻcÉĻy": 7368,
      "ĠedÉĻcÉĻyi": 7369,
      "ĠedÉĻcÉĻyimi": 7370,
      "ĠmÉĻsaf": 7371,
      "ĠyarÄ±ÅŁ": 7372,
      "ĠyaratdÄ±": 7373,
      "Ġlent": 7374,
      "ĠsÃ¶ylÉĻy": 7375,
      "ĠsÃ¶ylÉĻyir": 7376,
      "ĠgÃ¼lÃ¼nc": 7377,
      "ĠtÉĻrÉĻfinÉĻ": 7378,
      "ĠtÉĻrÉĻfdÉĻki": 7379,
      "ĠdÉĻqiqÉĻnin": 7380,
      "ĠdÉĻqiqÉĻlÉĻrdÉĻ": 7381,
      "ĠhaqlÄ±dÄ±r": 7382,
      "ĠcavabÄ±": 7383,
      "Ġqorxaq": 7384,
      "Ġqorxusu": 7385,
      "ĠqorxmayÄ±n": 7386,
      "ĠdayanmÄ±ÅŁdÄ±lar": 7387,
      "ĠÉĻzbÉĻr": 7388,
      "ĠarxasÄ±": 7389,
      "ĠarxasÄ±na": 7390,
      "Ġarxiv": 7391,
      "ĠarxasÄ±nca": 7392,
      "ĠgÃ¶stÉĻrmÉĻyÉĻ": 7393,
      "ĠsalÄ±rdÄ±": 7394,
      "ĠsalmaÄŁa": 7395,
      "Ġitalyan": 7396,
      "ĠyekÉĻ": 7397,
      "ĠÃ§Ä±xardÄ±ÄŁÄ±": 7398,
      "ĠÃ§Ä±xarkÉĻn": 7399,
      "Ġpulun": 7400,
      "Ġpulem": 7401,
      "ĠyaÅŁan": 7402,
      "ĠqÉĻrarÄ±": 7403,
      "Ġsaata": 7404,
      "Ġquruyub": 7405,
      "ĠsaxlayÄ±ram": 7406,
      "Ġuinstondan": 7407,
      "Ġoturaraq": 7408,
      "Ã¼sÃ¼": 7409,
      "ĠnÉĻzÉĻri": 7410,
      "Ġsuya": 7411,
      "alÄ±ÄŁa": 7412,
      "ĠxoÅŁdur": 7413,
      "adaraq": 7414,
      "aÄŁÄ±na": 7415,
      "ndiki": 7416,
      "ĠbizimlÉĻ": 7417,
      "Ġbizimki": 7418,
      "ĠÃ§alÄ±ÅŁan": 7419,
      "ĠÃ§alÄ±ÅŁÄ±rdÄ±lar": 7420,
      "dibli": 7421,
      "ĠqucaÄŁ": 7422,
      "ĠaparÄ±l": 7423,
      "ĠqaÃ§Ä±rdÄ±": 7424,
      "ĠqaÃ§maq": 7425,
      "ĠhaqqÄ±": 7426,
      "ĠhaqqÄ±mda": 7427,
      "dilmiÅŁdi": 7428,
      "Ġizdiham": 7429,
      "ĠbÉĻraÉĻt": 7430,
      "Ġdava": 7431,
      "ĠinanÄ±r": 7432,
      "ĠqalxÄ±rdÄ±": 7433,
      "ĠqalxmÄ±ÅŁdÄ±": 7434,
      "ĠhÉĻyatÄ±m": 7435,
      "ĠeynÉĻn": 7436,
      "Ġirin": 7437,
      "ĠfikirlÉĻÅŁirÉĻm": 7438,
      "ĠfikirlÉĻÅŁdim": 7439,
      "ĠfikirlÉĻÅŁirdim": 7440,
      "mirik": 7441,
      "Ġqatili": 7442,
      "ĠtÉĻlÉĻf": 7443,
      "ĠÉĻtir": 7444,
      "ĠÉĻtli": 7445,
      "Ġgirir": 7446,
      "ĠgÉĻtirirdi": 7447,
      "ĠgÉĻtirÉĻndÉĻ": 7448,
      "ĠistÉĻdiyim": 7449,
      "ĠistÉĻdiyimi": 7450,
      "ĠhazÄ±rdÄ±r": 7451,
      "ĠhazÄ±rlayÄ±b": 7452,
      "ĠsÉĻrsÉĻm": 7453,
      "ĠsÉĻrbÉĻst": 7454,
      "ĠsÃ¼rÉĻt": 7455,
      "Ġkarkov": 7456,
      "Ġkarlo": 7457,
      "Ġmeyil": 7458,
      "Ġmeyxana": 7459,
      "ĠgÃ¶zÉĻldir": 7460,
      "ĠvurmuÅŁ": 7461,
      "ĠvurÄŁu": 7462,
      "Ġdeyirdin": 7463,
      "ĠyanÄ±ndakÄ±": 7464,
      "ĠqayÄ±dÄ±rdÄ±": 7465,
      "ĠgÉĻlÉĻni": 7466,
      "ĠgÉĻlÉĻnlÉĻrin": 7467,
      "Ġcinsi": 7468,
      "ĠmityanÄ±": 7469,
      "Ġprot": 7470,
      "Ġpress": 7471,
      "ĠyazÄ±rdÄ±": 7472,
      "ĠyazÄ±b": 7473,
      "ĠyazmaÄŁa": 7474,
      "ĠÃ¶ldÃ¼rÃ¼l": 7475,
      "ĠdÉĻhlizÉĻ": 7476,
      "Ġyatan": 7477,
      "ĠyatÄ±r": 7478,
      "ĠuÅŁaqlÄ±qdan": 7479,
      "ĠeÅŁitmÉĻmiÅŁdi": 7480,
      "ĠeÅŁitmÉĻmiÅŁÉĻm": 7481,
      "ĠtÉĻhqiqat": 7482,
      "ĠyayÄ±lÄ±b": 7483,
      "ĠkeÃ§irib": 7484,
      "ĠpolisÉĻ": 7485,
      "acan": 7486,
      "ĠdolmuÅŁ": 7487,
      "ĠdÉĻyiÅŁib": 7488,
      "ĠÉĻlamÉĻt": 7489,
      "ĠÉĻlamÉĻti": 7490,
      "ĠgÃ¶tÃ¼rÃ¼r": 7491,
      "ĠgÃ¶tÃ¼rmÉĻk": 7492,
      "ĠgÃ¶tÃ¼rÃ¼ldÃ¼": 7493,
      "ĠayaÄŁÄ±na": 7494,
      "ĠayaÄŁÄ±nÄ±n": 7495,
      "Ġhesaba": 7496,
      "ĠhesabÄ±na": 7497,
      "ĠpalÃ§Ä±q": 7498,
      "Ġpuaroya": 7499,
      "Ġoxuya": 7500,
      "ĠoxuduÄŁu": 7501,
      "ĠxÉĻbÉĻrsiz": 7502,
      "ĠsayÄ±q": 7503,
      "ĠsaysÄ±z": 7504,
      "ĠsayÄ±lan": 7505,
      "ĠuzunboÄŁaz": 7506,
      "otu": 7507,
      "otin": 7508,
      "ĠboÅŁqab": 7509,
      "ĠxÃ¼sus": 7510,
      "ĠaxÅŁamlar": 7511,
      "ĠhÉĻrÉĻkÉĻtÉĻ": 7512,
      "ĠdÉĻyirdi": 7513,
      "ĠÉĻrinÉĻ": 7514,
      "ĠÉĻrinin": 7515,
      "ĠetmÉĻyÉĻcÉĻyÉĻm": 7516,
      "ĠÉĻsasÄ±nÄ±": 7517,
      "ĠmÉĻÅŁÉĻl": 7518,
      "mÄ±zda": 7519,
      "ĠqaldÄ±rÄ±r": 7520,
      "ĠqaldÄ±raraq": 7521,
      "ĠyuxarÄ±dan": 7522,
      "Ã§ilik": 7523,
      "ĠsÉĻhÉĻrlÉĻr": 7524,
      "ĠgÉĻlÉĻcÉĻyi": 7525,
      "Ġyaddan": 7526,
      "ĠyadÄ±nÄ±z": 7527,
      "Ġduyul": 7528,
      "ÄŁundan": 7529,
      "ĠbÃ¶lmÉĻ": 7530,
      "ĠqÄ±c": 7531,
      "ĠÉĻtrafÄ±ndakÄ±": 7532,
      "ĠÉĻlimÉĻ": 7533,
      "ĠÉĻlimdÉĻ": 7534,
      "ĠmÃ¼ttÉĻfiq": 7535,
      "Ġoyaq": 7536,
      "ĠÃ§arrin": 7537,
      "ĠÃ§ardaq": 7538,
      "ĠÃ§armÄ±x": 7539,
      "ĠdostlarÄ±m": 7540,
      "ĠminnÉĻt": 7541,
      "Ġduran": 7542,
      "Ġdurur": 7543,
      "Ġduraraq": 7544,
      "Ġdurmadan": 7545,
      "ĠqÉĻzÉĻbi": 7546,
      "Ġyumdu": 7547,
      "ĠÉĻzablarÄ±": 7548,
      "Ġova": 7549,
      "ĠovÃ§u": 7550,
      "Ġovqat": 7551,
      "Ġqolu": 7552,
      "ĠqollarÄ±": 7553,
      "ĠzÉĻrr": 7554,
      "ĠzÉĻrbÉĻ": 7555,
      "ĠzÉĻrfi": 7556,
      "ĠnÉĻzÉĻrlÉĻ": 7557,
      "ĠnÉĻzÉĻrlÉĻri": 7558,
      "ĠxatÄ±rlayÄ±ram": 7559,
      "ĠhÉĻqiqÉĻtÉĻ": 7560,
      "ĠyaÅŁayacaq": 7561,
      "ĠdÃ¶yÃ¼l": 7562,
      "ĠhadisÉĻnin": 7563,
      "ĠmaddÉĻ": 7564,
      "ĠaÄŁaclar": 7565,
      "Ġkoll": 7566,
      "ĠkollarÄ±n": 7567,
      "ĠistÉĻyirsÉĻ": 7568,
      "ĠaclÄ±qdan": 7569,
      "ĠdÃ¶rdÃ¼": 7570,
      "caÄŁÄ±nÄ±n": 7571,
      "Ġuzanaraq": 7572,
      "ĠaÄŁÄ±rdÄ±r": 7573,
      "Ġqoydum": 7574,
      "ĠqoyduÄŁunu": 7575,
      "Ġabidi": 7576,
      "ĠbilÉĻcÉĻyim": 7577,
      "ĠdÃ¼ÅŁÃ¼ndÃ¼y": 7578,
      "ĠdÃ¼nyadakÄ±": 7579,
      "ĠgÉĻzir": 7580,
      "ĠqaraÃ§Ä±": 7581,
      "siyada": 7582,
      "ĠfikrinÉĻ": 7583,
      "Ġqorxudur": 7584,
      "ĠnifrÉĻtlÉĻ": 7585,
      "bura": 7586,
      "ĠbÉĻdÉĻnindÉĻn": 7587,
      "ĠgÃ¶zlÉĻdiyi": 7588,
      "ĠqardaÅŁÄ±nÄ±": 7589,
      "ĠqardaÅŁlarÄ±nÄ±n": 7590,
      "ĠdÃ¶ÅŁÉĻnmiÅŁ": 7591,
      "ĠpartiyanÄ±": 7592,
      "Ġmark": 7593,
      "ĠaÄŁÄ±lsÄ±zlÄ±q": 7594,
      "Ġucuz": 7595,
      "Ġucuna": 7596,
      "lÉĻndirmÉĻk": 7597,
      "lÉĻndirirdi": 7598,
      "ĠotaqlarÄ±": 7599,
      "ĠtÉĻrpÉĻdÉĻrÉĻk": 7600,
      "ĠÃ¶lÃ¼mqabaÄŁÄ±": 7601,
      "ĠsualÄ±n": 7602,
      "Ġsuallara": 7603,
      "ĠmeydanÄ±n": 7604,
      "Ġoyunlar": 7605,
      "ĠoyunlarÄ±": 7606,
      "Ġoyuncaq": 7607,
      "bÉĻrk": 7608,
      "Ġsevindi": 7609,
      "ĠsevinirÉĻm": 7610,
      "ĠÉĻminliklÉĻ": 7611,
      "ĠfÉĻrqindÉĻ": 7612,
      "ĠqÄ±ÅŁqÄ±rÄ±r": 7613,
      "ĠqÄ±ÅŁqÄ±rÄ±rdÄ±": 7614,
      "ĠcanlandÄ±r": 7615,
      "ĠxanÄ±mÄ±n": 7616,
      "ĠÃ¶zÃ¼nÉĻmÉĻ": 7617,
      "ĠmÃ¼ÉĻyyÉĻnlÉĻÅŁdir": 7618,
      "Ä±ltÄ±lÄ±": 7619,
      "Ġdivardan": 7620,
      "ĠdivarlarÄ±": 7621,
      "Ä±landa": 7622,
      "Ġknyagin": 7623,
      "ĠtÉĻmizÉĻ": 7624,
      "Ġmakri": 7625,
      "ĠpaltarÄ±nÄ±": 7626,
      "ĠhadisÉĻlÉĻr": 7627,
      "ĠhadisÉĻdir": 7628,
      "ĠhadisÉĻlÉĻri": 7629,
      "ĠsilkÉĻlÉĻ": 7630,
      "Ġidman": 7631,
      "ĠgÃ¶rÃ¼ÅŁdÃ¼": 7632,
      "ĠaxÄ±rÄ±": 7633,
      "ĠtÉĻkrarladÄ±": 7634,
      "ĠsifÉĻtindÉĻn": 7635,
      "ĠkÃ¼Ã§ÉĻyÉĻ": 7636,
      "ĠkÃ¼Ã§ÉĻnin": 7637,
      "ĠkÃ¼Ã§ÉĻlÉĻri": 7638,
      "ĠmÃ¶htÉĻrÉĻm": 7639,
      "ĠlÉĻq": 7640,
      "ĠlÉĻvaz": 7641,
      "Ġmasa": 7642,
      "ĠmeÅŁÅŁan": 7643,
      "ortyor": 7644,
      "ĠtÉĻsdiqlÉĻdi": 7645,
      "ĠÃ¶yrÉĻndi": 7646,
      "ĠÃ¶yrÉĻnmÉĻyÉĻ": 7647,
      "ĠÃ¶yrÉĻndim": 7648,
      "epsiya": 7649,
      "ĠgÉĻncliyi": 7650,
      "ĠbaÄŁÄ±ÅŁlama": 7651,
      "ĠbaÄŁÄ±ÅŁlayÄ±ram": 7652,
      "ĠqayÄ±tdÄ±qdan": 7653,
      "Ġboru": 7654,
      "Ġboris": 7655,
      "ĠiÃ§ÉĻridÉĻ": 7656,
      "Ġdonuzlar": 7657,
      "Ġdonuzlara": 7658,
      "bucaq": 7659,
      "Ġtoxuna": 7660,
      "ĠÃ§aÄŁÄ±rÄ±ÅŁ": 7661,
      "ĠÃ§aÄŁÄ±rmaq": 7662,
      "ĠetmiÅŁdim": 7663,
      "ĠyaranÄ±r": 7664,
      "ĠbacarÄ±q": 7665,
      "aliz": 7666,
      "Ġboya": 7667,
      "Ġsusur": 7668,
      "ĠmÃ¶vzu": 7669,
      "ĠmÃ¶vqey": 7670,
      "ĠgÃ¼mrah": 7671,
      "ĠtÉĻnha": 7672,
      "ĠtÉĻnbÉĻl": 7673,
      "ĠtÉĻnÉĻzz": 7674,
      "Ġnark": 7675,
      "ĠuÃ§urdu": 7676,
      "larÄ±mdan": 7677,
      "ĠkatrinanÄ±n": 7678,
      "ĠqÉĻlbim": 7679,
      "ĠhÉĻddÉĻ": 7680,
      "Ġkitablar": 7681,
      "ĠbabamÄ±": 7682,
      "dÃ¼yÃ¼nÉĻ": 7683,
      "ĠzÉĻngi": 7684,
      "ĠzÉĻngin": 7685,
      "ĠÃ¼rÉĻyimÉĻ": 7686,
      "ĠpÉĻncÉĻrÉĻsindÉĻn": 7687,
      "suzluq": 7688,
      "xanasÄ±nda": 7689,
      "Ġdamar": 7690,
      "ĠetmÉĻmiÅŁÉĻm": 7691,
      "ĠolduqlarÄ±": 7692,
      "Ġqaydada": 7693,
      "Ġqurtaran": 7694,
      "ĠsahibÉĻniz": 7695,
      "sÉĻydilÉĻr": 7696,
      "ĠdizlÉĻri": 7697,
      "ĠkiÅŁilÉĻrin": 7698,
      "Ġpablonun": 7699,
      "ĠÅŁeylÉĻrdir": 7700,
      "ĠtÉĻqib": 7701,
      "ĠtÉĻqsir": 7702,
      "ĠheyrÉĻtlÉĻ": 7703,
      "ĠheyrÉĻtdÉĻn": 7704,
      "ĠbÃ¶lgÉĻdÉĻ": 7705,
      "Ġdaxili": 7706,
      "ĠayrÄ±ca": 7707,
      "ĠayrÄ±lan": 7708,
      "ĠÃ¼rÉĻyincÉĻ": 7709,
      "Ġyataqda": 7710,
      "ĠmÉĻÅŁÄŁuldur": 7711,
      "Ã¼stÃ¼": 7712,
      "ĠisveÃ§rÉĻli": 7713,
      "ĠÃ¶pdÃ¼": 7714,
      "ĠÃ¶pmÉĻyÉĻ": 7715,
      "ĠÃ§evrilir": 7716,
      "ĠÃ§evirir": 7717,
      "ĠÃ§evirÉĻcÉĻklÉĻr": 7718,
      "ĠdikÉĻlib": 7719,
      "ĠyazÄ±ÄŁÄ±": 7720,
      "ĠyazÄ±ÄŁÄ±m": 7721,
      "ĠÅŁÉĻnlÉĻn": 7722,
      "ĠmÉĻhkÉĻmÉĻyÉĻ": 7723,
      "ĠgÉĻlÉĻcÉĻkdÉĻ": 7724,
      "ĠyetirmÉĻk": 7725,
      "ĠdÉĻstÉĻsi": 7726,
      "Ġklub": 7727,
      "ĠtabaÅŁ": 7728,
      "lizm": 7729,
      "ĠpÉĻrt": 7730,
      "ĠpÉĻrdÉĻnin": 7731,
      "ĠrÉĻqÉĻm": 7732,
      "ĠiÅŁlÉĻdiyi": 7733,
      "ĠadamlardÄ±r": 7734,
      "Ġfermaya": 7735,
      "Ġyeyir": 7736,
      "ĠyeyirÉĻm": 7737,
      "ĠÃ§Ä±ÄŁÄ±rtÄ±": 7738,
      "ĠÃ§Ä±ÄŁÄ±rÄŁanÄ±n": 7739,
      "ĠbaÅŁlasa": 7740,
      "ĠmÃ¼daxilÉĻ": 7741,
      "ĠdÃ¼ÅŁÃ¼rsÉĻn": 7742,
      "ĠtÉĻxmini": 7743,
      "ĠmÉĻsÉĻlÉĻnin": 7744,
      "ĠyarÄ±mÃ§Ä±q": 7745,
      "ĠdÃ¼zÉĻldilmiÅŁ": 7746,
      "ĠgizlÉĻtmÉĻk": 7747,
      "ĠmÉĻlumatlar": 7748,
      "murlar": 7749,
      "ĠÅŁÃ¼arÄ±": 7750,
      "ĠgÉĻlmiÅŁdim": 7751,
      "ĠxeyrinÉĻ": 7752,
      "ĠrÉĻhbÉĻrlÉĻri": 7753,
      "Ġketterinqin": 7754,
      "ĠhÃ¼cuma": 7755,
      "Ġkomp": 7756,
      "ĠtÉĻpik": 7757,
      "ĠdodaqlarÄ±na": 7758,
      "ĠgizlicÉĻ": 7759,
      "Ġoxuyuram": 7760,
      "ĠrazÄ±laÅŁa": 7761,
      "Ġtoxunan": 7762,
      "Ġtoxunmaq": 7763,
      "ĠÃ§Ã¶rÉĻkdÉĻn": 7764,
      "ĠmÃ¼nasibÉĻti": 7765,
      "aÃ§Ä±q": 7766,
      "imat": 7767,
      "ofon": 7768,
      "ĠbÃ¼rÃ¼mÃ¼ÅŁ": 7769,
      "ĠbÃ¼ruzÉĻ": 7770,
      "Ġvurdum": 7771,
      "ĠtÃ¶kÃ¼lÉĻn": 7772,
      "ĠmÉĻnzÉĻr": 7773,
      "ĠplanÄ±": 7774,
      "ĠÃ¶zÃ¼ndÉĻnrazÄ±": 7775,
      "ĠyerlÉĻÅŁir": 7776,
      "ĠyerlÉĻÅŁÉĻn": 7777,
      "ĠyerlÉĻÅŁirdi": 7778,
      "ĠyerlÉĻÅŁdiyini": 7779,
      "ĠgeyinmiÅŁ": 7780,
      "ĠÉĻrzaq": 7781,
      "senÅŁtub": 7782,
      "ĠlÉĻng": 7783,
      "Ġdiri": 7784,
      "ĠÃ§irkin": 7785,
      "ĠÃ§Ã¶kÃ¼b": 7786,
      "ĠbasmÄ±ÅŁ": 7787,
      "ĠÅŁÉĻhvÉĻt": 7788,
      "ĠÃ¼zvlÉĻrinin": 7789,
      "ĠkeÃ§irdiyi": 7790,
      "ĠtÉĻrpÉĻndi": 7791,
      "ĠtÉĻrpÉĻnmÉĻdÉĻn": 7792,
      "Ġkapitan": 7793,
      "lÃ¼yÃ¼nÃ¼": 7794,
      "ĠsatÄ±n": 7795,
      "ĠpillÉĻlÉĻri": 7796,
      "ĠdÃ¼ÅŁÃ¼rdÃ¼lÉĻr": 7797,
      "vanovnaya": 7798,
      "ĠhazÄ±rlaÅŁan": 7799,
      "ĠbinanÄ±n": 7800,
      "ĠbinasÄ±nda": 7801,
      "Ġqism": 7802,
      "ĠtÉĻmkinli": 7803,
      "ĠbaÅŁlanmÄ±ÅŁdÄ±": 7804,
      "ĠdÃ¼ÅŁmÉĻnlÉĻri": 7805,
      "ĠgÃ¼ndÉĻlik": 7806,
      "Ġburnundan": 7807,
      "ĠÃ§ÉĻkmÉĻlÉĻrini": 7808,
      "ĠoturmuÅŁdular": 7809,
      "Ġboynuma": 7810,
      "Ġtelefonun": 7811,
      "Ġtelefonu": 7812,
      "Ġmilyoner": 7813,
      "Ġmilyonlarla": 7814,
      "Ġholmun": 7815,
      "tuisiya": 7816,
      "ĠbeyninÉĻ": 7817,
      "ĠbeynindÉĻn": 7818,
      "ĠseÃ§im": 7819,
      "ĠyÄ±xÄ±ldÄ±": 7820,
      "ĠyÄ±xÄ±lÄ±b": 7821,
      "Ġeksp": 7822,
      "ĠrusiyanÄ±n": 7823,
      "ĠsaxladÄ±m": 7824,
      "ĠmÉĻhkÉĻmÉĻdÉĻ": 7825,
      "ĠqÉĻlÉĻm": 7826,
      "ĠhÃ¶kmÉĻn": 7827,
      "Ġkorp": 7828,
      "Ġvetra": 7829,
      "ĠetmiÅŁdir": 7830,
      "ĠgedÉĻnÉĻ": 7831,
      "ĠbabamÄ±n": 7832,
      "Ġtarixi": 7833,
      "ĠqÉĻhqÉĻh": 7834,
      "ĠhÃ¶rmÉĻtli": 7835,
      "ĠniÅŁanlÄ±": 7836,
      "Ġbelini": 7837,
      "ĠortasÄ±na": 7838,
      "ĠhÉĻyÉĻcanlandÄ±r": 7839,
      "ĠÃ§evrilirdi": 7840,
      "ĠÃ§evrilmiÅŁdi": 7841,
      "ĠtitrÉĻyÉĻn": 7842,
      "ĠhÉĻbsxana": 7843,
      "ĠsilahÄ±": 7844,
      "qorxu": 7845,
      "Ġliza": 7846,
      "Ġskan": 7847,
      "ĠsÄ±rÄŁa": 7848,
      "Ġtula": 7849,
      "Ġporlok": 7850,
      "Ġbuxar": 7851,
      "oloji": 7852,
      "ologiya": 7853,
      "ĠsevirsÉĻn": 7854,
      "ĠsevincdÉĻn": 7855,
      "ĠkÃ¶rpÃ¼dÉĻ": 7856,
      "ĠmÃ¶vcuddur": 7857,
      "Ġmoskvadan": 7858,
      "Ġkaramazovun": 7859,
      "skinin": 7860,
      "Ã¼lÉĻnÉĻn": 7861,
      "ĠdÃ¼yÃ¼n": 7862,
      "ĠdÃ¼ymÉĻ": 7863,
      "ĠdÃ¼ymÉĻni": 7864,
      "Ġvatikana": 7865,
      "ĠdaÄŁÄ±t": 7866,
      "ĠpÄ±Ã§Ä±ltÄ±": 7867,
      "ĠyadÄ±mda": 7868,
      "ĠÅŁiÅŁmiÅŁdi": 7869,
      "ĠÉĻdÉĻbsizlik": 7870,
      "ĠgÃ¶rÃ¼rsÃ¼nÃ¼z": 7871,
      "Ġqaynaq": 7872,
      "Ġandres": 7873,
      "ĠdediyinÉĻ": 7874,
      "ĠyalvarÄ±rdÄ±": 7875,
      "ĠqoyulmuÅŁdu": 7876,
      "Ġrakitka": 7877,
      "ĠoÄŁurluq": 7878,
      "ĠqÉĻtllÉĻr": 7879,
      "ĠÃ§arpayÄ±da": 7880,
      "ĠyÃ¶nÉĻltdi": 7881,
      "ĠÉĻÅŁyalar": 7882,
      "ĠÃ§Ã¶h": 7883,
      "ĠnÉĻslinin": 7884,
      "ĠÅŁÃ¶bÉĻ": 7885,
      "ĠcÉĻrÉĻy": 7886,
      "ĠcÉĻrgÉĻ": 7887,
      "Ġcumur": 7888,
      "Ġcumub": 7889,
      "ĠcÉĻnablar": 7890,
      "Ġziyan": 7891,
      "ĠaÄŁarmÄ±ÅŁdÄ±": 7892,
      "ĠsÃ¶ykÉĻndi": 7893,
      "Ġqopdu": 7894,
      "Ġmeyitin": 7895,
      "ĠdÉĻyirmanÄ±n": 7896,
      "fild": 7897,
      "Ġvaleh": 7898,
      "Ġtoyu": 7899,
      "Ġnitsaya": 7900,
      "ĠpencÉĻy": 7901,
      "ĠpencÉĻyini": 7902,
      "ĠcÉĻza": 7903,
      "Ġxalis": 7904,
      "ĠxÉĻtt": 7905,
      "ĠxÉĻtrinÉĻ": 7906,
      "ĠaramÄ±zda": 7907,
      "ĠaralÄ±da": 7908,
      "ĠromanÄ±n": 7909,
      "ĠsakitlÉĻÅŁdirmÉĻyÉĻ": 7910,
      "ĠqabaÄŁÄ±na": 7911,
      "ĠdÉĻhlizdÉĻ": 7912,
      "ĠtÉĻntÉĻnÉĻ": 7913,
      "Ġkapitolun": 7914,
      "Ġvetlesenin": 7915,
      "Ġkamil": 7916,
      "Ġpasport": 7917,
      "Ġpasiyent": 7918,
      "ĠbaÅŁqasÄ±nÄ±": 7919,
      "Ġqaytarmaq": 7920,
      "ĠtamaÅŁaÃ§Ä±": 7921,
      "Ġboyunca": 7922,
      "ĠÅŁÉĻkillÉĻri": 7923,
      "ĠotaÄŁÄ±ndakÄ±": 7924,
      "ĠmaÅŁÄ±nÄ±nÄ±n": 7925,
      "Ġideya": 7926,
      "Ġbayaqdan": 7927,
      "Ġbernini": 7928,
      "ĠhÃ¶rmÉĻtlÉĻ": 7929,
      "ĠskamyanÄ±n": 7930,
      "gÃ¶zÃ¼nÃ¼": 7931,
      "ĠvÉĻssalam": 7932,
      "Ġnormal": 7933,
      "Ġxaric": 7934,
      "Ġxarici": 7935,
      "ĠrÉĻsm": 7936,
      "ĠdolaÅŁÄ±rdÄ±": 7937,
      "ĠnÉĻzakÉĻtlÉĻ": 7938,
      "ĠnÉĻzakÉĻtli": 7939,
      "ĠdavranÄ±ÅŁÄ±": 7940,
      "maÄŁÄ±mÄ±n": 7941,
      "ĠkilsÉĻsinin": 7942,
      "ĠnÉĻticÉĻsi": 7943,
      "ĠnÉĻticÉĻdÉĻ": 7944,
      "ĠnÉĻticÉĻlÉĻrini": 7945,
      "ĠdÄ±rnaqlarÄ±": 7946,
      "ĠnÃ¶mrÉĻsini": 7947,
      "ĠqaÅŁqabaÄŁÄ±nÄ±": 7948,
      "ĠbÉĻyÉĻm": 7949,
      "Ġspirt": 7950,
      "Ġsponsor": 7951,
      "ĠsÉĻth": 7952,
      "ĠsÄ±Ã§ra": 7953,
      "Ġmussyal": 7954,
      "ĠhÃ¼quqlarÄ±": 7955,
      "Ġiqum": 7956,
      "ĠdaÄŁÄ±ldÄ±": 7957,
      "Ġperezv": 7958,
      "ĠÃ¶lÉĻnÉĻ": 7959,
      "Ġuddu": 7960,
      "ĠqayÄŁÄ±sÄ±na": 7961,
      "ĠgeyllÉĻ": 7962,
      "ĠduyÄŁularÄ±": 7963,
      "ĠtorpaÄŁÄ±": 7964,
      "ĠtorpaÄŁa": 7965,
      "ĠlovÄŁalÄ±q": 7966,
      "Ġoslo": 7967,
      "ĠduqlasÄ±n": 7968,
      "ĠsÉĻksÉĻn": 7969,
      "ĠkÉĻsilib": 7970,
      "ĠÃ§ÉĻrÉĻn": 7971,
      "ĠÃ§ÉĻrÃ§i": 7972,
      "ĠcoÅŁqun": 7973,
      "imnaz": 7974,
      "ĠsakinlÉĻri": 7975,
      "ĠmÃ¼ÉĻlli": 7976,
      "ĠmÃ¼ÉĻllif": 7977,
      "ĠsakitlÉĻÅŁmÉĻk": 7978,
      "Ġprollar": 7979,
      "ĠotaÄŁÄ±ma": 7980,
      "ĠmÃ¼qÉĻssirÉĻm": 7981,
      "Ġtelevizor": 7982,
      "Ġteleviziya": 7983,
      "ĠgÃ¼lÃ¼msÉĻyirdi": 7984,
      "ĠtÉĻhlÃ¼kÉĻlidir": 7985,
      "Ġvasilyevski": 7986,
      "Ġkresloda": 7987,
      "Ġkresloya": 7988,
      "ĠgerÃ§ÉĻkliyin": 7989,
      "ĠbÉĻnzÉĻyÉĻn": 7990,
      "ĠÃ§aÅŁqÄ±nlÄ±qla": 7991,
      "ĠÅŁlyapasÄ±": 7992,
      "ĠcentlmenlÉĻr": 7993,
      "ĠsÉĻliqÉĻ": 7994,
      "ĠsÉĻliqÉĻli": 7995,
      "ĠsÉĻmt": 7996,
      "Ġsamson": 7997,
      "Ġhasara": 7998,
      "ĠkÉĻlÉĻk": 7999,
      "Ġfaiz": 8000,
      "ĠsÃ¶ndÃ¼r": 8001,
      "Ġrolf": 8002,
      "ĠotelinÉĻ": 8003,
      "Ġqoruyurdu": 8004,
      "ĠboÄŁazÄ±ndan": 8005,
      "Ġtabutu": 8006,
      "ĠnÃ¶qtÉĻ": 8007,
      "Ġpaltosunu": 8008,
      "Ġpaltosunun": 8009,
      "ĠgÃ¶yÉĻrÃ§in": 8010,
      "ĠmonastÄ±rdan": 8011,
      "tÉĻkrar": 8012,
      "ĠÉĻyilib": 8013,
      "ĠÉĻyilÉĻrÉĻk": 8014,
      "ĠiynÉĻlÉĻri": 8015,
      "ĠÃ§Ã¼rÃ¼mÃ¼ÅŁ": 8016,
      "Ġpaytaxt": 8017,
      "ĠrÉĻfiq": 8018,
      "ĠyanaqlarÄ±": 8019,
      "ĠÃ§evrilÉĻcÉĻk": 8020,
      "ĠtÉĻhlÃ¼kÉĻsizlik": 8021,
      "ĠgÃ¼mÃ¼ÅŁÃ¼": 8022,
      "Ġdereki": 8023,
      "ĠtÉĻcrÃ¼bÉĻli": 8024,
      "Ġteleekranda": 8025,
      "ĠcÉĻfÉĻngiyatdÄ±r": 8026,
      "ĠmÉĻqsÉĻdinÉĻ": 8027,
      "qÄ±rmÄ±zÄ±": 8028,
      "Ġsemin": 8029,
      "ĠqÉĻna": 8030,
      "Ġvahi": 8031,
      "Ġnizam": 8032,
      "ĠgÃ¶vdÉĻ": 8033,
      "ĠgÃ¶vdÉĻsinÉĻ": 8034,
      "ĠsavadlÄ±": 8035,
      "ĠbilmÉĻyÉĻcÉĻyini": 8036,
      "ĠzÃ¼lm": 8037,
      "ĠbaxÄ±mÄ±ndan": 8038,
      "ĠfikrincÉĻ": 8039,
      "ĠheyranlÄ±q": 8040,
      "ĠsÉĻssizcÉĻ": 8041,
      "xtiyar": 8042,
      "ĠqayÄ±danda": 8043,
      "ĠkÃ¼Ã§ÉĻlÉĻrindÉĻ": 8044,
      "ĠboÄŁaza": 8045,
      "ĠalÃ§altmaq": 8046,
      "ĠqaydasÄ±ndadÄ±r": 8047,
      "ĠpÉĻrdÉĻlÉĻrin": 8048,
      "ĠistehsalÄ±": 8049,
      "ĠcÉĻsÉĻdini": 8050,
      "ĠnÃ¼mayÉĻndÉĻsi": 8051,
      "ĠsÄ±Ã§rayÄ±b": 8052,
      "Ġmusiqi": 8053,
      "ĠqÃ¼rurla": 8054,
      "ĠfaydalÄ±": 8055,
      "ĠkÉĻÅŁfiyyat": 8056,
      "ĠmokrÄ±ya": 8057,
      "ĠitaÉĻtkar": 8058,
      "ĠnÃ¼fuzu": 8059,
      "Ġvilla": 8060,
      "ĠcÄ±ÄŁÄ±rla": 8061,
      "ĠÉĻmÉĻkdaÅŁ": 8062,
      "ĠfÉĻsil": 8063,
      "Ġfiqur": 8064,
      "ĠinÉĻklÉĻri": 8065,
      "Ġinadla": 8066,
      "Ġreportyor": 8067,
      "Ġtacir": 8068,
      "ĠbiabÄ±rÃ§Ä±": 8069,
      "ĠtÉĻfÉĻrrÃ¼": 8070,
      "ĠparfyonoviÃ§": 8071,
      "ĠqÉĻtiyyÉĻtlÉĻ": 8072,
      "ĠÉĻhatÉĻ": 8073,
      "Ġ194": 8074,
      "ĠÃ§arpazlayÄ±b": 8075,
      "ĠtÉĻqdirdÉĻ": 8076,
      "Ġisrarla": 8077,
      "Ġkonkret": 8078,
      "ĠandlÄ±lar": 8079,
      "Ġplakatda": 8080,
      "Ġprimitiv": 8081,
      "ĠmÄ±zÄ±ldandÄ±": 8082,
      "ĠgÃ¼zgÃ¼yÉĻ": 8083,
      "ĠÃ¼funÉĻt": 8084,
      "ĠfÉĻlakÉĻt": 8085,
      "Ġdmitrinin": 8086,
      "Ġsubay": 8087,
      "ĠsÃ¼tun": 8088,
      "Ġhelikop": 8089,
      "ĠvidalaÅŁ": 8090,
      "ĠmÉĻntiqi": 8091,
      "ĠÃ¶rdÉĻk": 8092,
      "ĠbubnovanÄ±n": 8093,
      "ĠÉĻxlaq": 8094,
      "ĠfaÅŁist": 8095,
      "olunmaz": 8096,
      "ĠmÃ¼ÉĻmmalÄ±": 8097,
      "ĠzÉĻncir": 8098,
      "ĠdÃ¼ÅŁÉĻrg": 8099,
      "ĠrÃ¼tb": 8100,
      "ĠqurtuluÅŁ": 8101,
      "ĠpoÃ§t": 8102,
      "ĠfÉĻrziyyÉĻ": 8103,
      "ĠdÃ¶rdÃ¼ncÃ¼": 8104,
      "Ġsilindr": 8105,
      "ĠkÃ¶ksÃ¼nÃ¼": 8106,
      "ĠÅŁÃ¶bÉĻsindÉĻ": 8107,
      "ĠÅŁÃ¶hrÉĻt": 8108,
      "ĠtÃ¶rÉĻdilÉĻn": 8109,
      "Ġinstinktiv": 8110,
      "ĠarakÉĻsmÉĻnin": 8111,
      "ĠpÉĻrÉĻstiÅŁkar": 8112,
      "Ġdoxsan": 8113,
      "ĠsiÃ§ovul": 8114,
      "Ġqandal": 8115,
      "Ġqiyam": 8116,
      "Ġmaqnus": 8117,
      "ĠtÃ¼lkÃ¼": 8118,
      "Ġpusqu": 8119,
      "ĠpÉĻhriz": 8120,
      "ĠÅŁkaf": 8121,
      "Ġcazib": 8122,
      "kidÉĻqiq": 8123,
      "ĠmÃ¼flis": 8124,
      "ĠmÃ¼lkiyyÉĻt": 8125,
      "ĠdÃ¼ÅŁÃ¼nÃ¼l": 8126,
      "Ġrayonunda": 8127,
      "ĠmÉĻhÉĻllÉĻ": 8128,
      "Ġdinamit": 8129,
      "ĠmÃ¼qavilÉĻ": 8130,
      "Ġqoldsteynin": 8131,
      "Ġenerj": 8132,
      "Ġiyeromonax": 8133,
      "ĠkÃ¼rÉĻkliyinÉĻ": 8134,
      "Ġispravnik": 8135,
      "Ġmehrab": 8136,
      "ĠxÉĻyanÉĻt": 8137,
      "ĠtÉĻmtÉĻraqlÄ±": 8138,
      "ĠbaÅŁlanÄŁÄ±c": 8139,
      "ĠxÉĻyala": 8140,
      "Ġikrahla": 8141,
      "Ġkalqanov": 8142,
      "ĠparaÅŁÃ¼t": 8143,
      "Ġvelosiped": 8144,
      "ixtiyari": 8145,
      "qÉĻlÉĻbÉĻ": 8146,
      "viter": 8147,
      "ĠsÃ¼lh": 8148,
      "ĠsÃ¼mÃ¼yÉĻ": 8149,
      "ĠqÉĻnimÉĻt": 8150,
      "Ġmujik": 8151,
      "ĠgertsenÅŁtub": 8152,
      "Ġhovuz": 8153,
      "ĠvaÄŁz": 8154,
      "Ġvalideyn": 8155,
      "ĠÃ§Ä±qq": 8156,
      "Ġolmusunuz": 8157,
      "Ġfilip": 8158,
      "ĠmÃ¼ller": 8159,
      "ĠÉĻsginaz": 8160,
      "Ġheylord": 8161,
      "ĠmÉĻhrumiyyÉĻt": 8162,
      "Ġdiaqnoz": 8163,
      "Ġmagistrat": 8164,
      "ĠminnÉĻtdar": 8165,
      "ĠlÉĻvazimat": 8166,
      "ĠqÉĻhqÉĻhÉĻ": 8167,
      "Ġhelikopter": 8168,
      "ĠgertsenÅŁtube": 8169,
      ",-": 8170,
      ",âĢĿ": 8171,
      "10": 8172,
      "13": 8173,
      "67": 8174,
      "?-": 8175,
      "alÉĻ": 8176,
      "alaca": 8177,
      "bÉĻs": 8178,
      "bab": 8179,
      "bada": 8180,
      "buna": 8181,
      "baz": 8182,
      "bÃ¶y": 8183,
      "bÃ¼d": 8184,
      "cin": 8185,
      "cÉĻm": 8186,
      "cÄ±l": 8187,
      "cÄ±nÄ±n": 8188,
      "cÃ¼l": 8189,
      "canlÄ±": 8190,
      "cÉĻsini": 8191,
      "dlÉĻ": 8192,
      "dlarÄ±": 8193,
      "del": 8194,
      "dom": 8195,
      "dman": 8196,
      "esi": 8197,
      "finin": 8198,
      "fÄ±l": 8199,
      "fÉĻtin": 8200,
      "fran": 8201,
      "fort": 8202,
      "ges": 8203,
      "guya": 8204,
      "geldÉĻ": 8205,
      "hlÉĻ": 8206,
      "hil": 8207,
      "hiz": 8208,
      "heÃ§": 8209,
      "hel": 8210,
      "hÉĻtta": 8211,
      "hamÄ±": 8212,
      "hiyy": 8213,
      "hÃ¼quq": 8214,
      "idÉĻn": 8215,
      "imiÅŁ": 8216,
      "keÃ§": 8217,
      "kÄ±ndan": 8218,
      "kÉĻlÉĻn": 8219,
      "koq": 8220,
      "lmÄ±ÅŁ": 8221,
      "lindÉĻn": 8222,
      "lmuÅŁ": 8223,
      "lgÃ¼c": 8224,
      "lfort": 8225,
      "mos": 8226,
      "mli": 8227,
      "met": 8228,
      "maraq": 8229,
      "mes": 8230,
      "mana": 8231,
      "mÄ±rlar": 8232,
      "ns": 8233,
      "nos": 8234,
      "nal": 8235,
      "ndan": 8236,
      "nÉĻf": 8237,
      "niyÉĻ": 8238,
      "nad": 8239,
      "nuk": 8240,
      "niyyat": 8241,
      "oma": 8242,
      "olaq": 8243,
      "oÄŁun": 8244,
      "pur": 8245,
      "pit": 8246,
      "pap": 8247,
      "plfort": 8248,
      "qÉĻr": 8249,
      "qal": 8250,
      "qil": 8251,
      "qon": 8252,
      "qas": 8253,
      "qÄ±l": 8254,
      "qum": 8255,
      "qanÄ±": 8256,
      "qaldÄ±": 8257,
      "qodu": 8258,
      "qtonun": 8259,
      "qhil": 8260,
      "rul": 8261,
      "rit": 8262,
      "roÅŁ": 8263,
      "rÉĻlÉĻn": 8264,
      "rop": 8265,
      "se": 8266,
      "sÃ¼r": 8267,
      "sanÄ±n": 8268,
      "slÉĻrin": 8269,
      "siyyÉĻt": 8270,
      "sÉĻri": 8271,
      "sonun": 8272,
      "ssiya": 8273,
      "sÄ±ra": 8274,
      "te": 8275,
      "tma": 8276,
      "tÉĻl": 8277,
      "tÄ±nÄ±": 8278,
      "tra": 8279,
      "tis": 8280,
      "tti": 8281,
      "tut": 8282,
      "tÉĻri": 8283,
      "uv": 8284,
      "uÃ§": 8285,
      "uta": 8286,
      "umÉĻt": 8287,
      "vo": 8288,
      "vah": 8289,
      "vÉĻnin": 8290,
      "veri": 8291,
      "vud": 8292,
      "xor": 8293,
      "xadan": 8294,
      "xsus": 8295,
      "yu": 8296,
      "yin": 8297,
      "yaq": 8298,
      "yini": 8299,
      "yinÉĻ": 8300,
      "yirdi": 8301,
      "ydÄ±m": 8302,
      "ylÉĻnmiÅŁ": 8303,
      "yÄ±ÄŁÄ±": 8304,
      "zir": 8305,
      "zÄ±n": 8306,
      "zla": 8307,
      "zon": 8308,
      "zÄ±ram": 8309,
      "ziya": 8310,
      "zÉĻyÉĻ": 8311,
      "zak": 8312,
      "ĠlÉĻr": 8313,
      "Ġlib": 8314,
      "ÉĻvah": 8315,
      "Ä±y": 8316,
      "Ä±lÄ±": 8317,
      "Ä±ÄŁÄ±nÄ±": 8318,
      "osif": 8319,
      "ospit": 8320,
      "Ã¼dÉĻ": 8321,
      "Ã¼dud": 8322,
      "ĠbÃ¼q": 8323,
      "ĠbÉĻla": 8324,
      "Ġbeyin": 8325,
      "ĠbÉĻhr": 8326,
      "ÅŁÃ¼": 8327,
      "ÅŁlÉĻri": 8328,
      "ÅŁiy": 8329,
      "aranÄ±n": 8330,
      "anlarÄ±n": 8331,
      "anist": 8332,
      "Ġdisk": 8333,
      "lÉĻk": 8334,
      "lÉĻlÉĻr": 8335,
      "irÉĻn": 8336,
      "Ġori": 8337,
      "Ġoqil": 8338,
      "ÉĻnnÉĻ": 8339,
      "Ä±nqÄ±l": 8340,
      "Ã§Ä±nÄ±": 8341,
      "Ã§ini": 8342,
      "Ã§anÄ±n": 8343,
      "Ã§Ã¼l": 8344,
      "Ã§Ã¼nki": 8345,
      "Ã§ÉĻsini": 8346,
      "Ġse": 8347,
      "ĠsÃ¼": 8348,
      "Ġsib": 8349,
      "ĠsÉĻc": 8350,
      "Ġses": 8351,
      "Ġsob": 8352,
      "Ġsola": 8353,
      "Ġsima": 8354,
      "Ġsaqq": 8355,
      "Ġseli": 8356,
      "did": 8357,
      "dimÉĻ": 8358,
      "Ġqer": 8359,
      "ĠqÄ±rdÄ±": 8360,
      "ĠqanÄ±n": 8361,
      "ĠqÄ±na": 8362,
      "ĠqanlÄ±": 8363,
      "Ġmal": 8364,
      "Ġmen": 8365,
      "Ġmiq": 8366,
      "Ġmeri": 8367,
      "Ġmant": 8368,
      "ĠmiÅŁar": 8369,
      "Ġgil": 8370,
      "ĠgÉĻliÅŁ": 8371,
      "Ġgott": 8372,
      "Ġgimnaz": 8373,
      "ĠalÉĻ": 8374,
      "Ġaha": 8375,
      "ĠyÄ±ÄŁÄ±r": 8376,
      "ĠyÃ¼yÃ¼r": 8377,
      "ĠyoÄŁun": 8378,
      "Ġher": 8379,
      "ĠhÉĻs": 8380,
      "Ġhab": 8381,
      "ĠhÉĻdÉĻr": 8382,
      "Ġhob": 8383,
      "ĠhÉĻss": 8384,
      "ĠhÃ¶nkÃ¼r": 8385,
      "Ġhospit": 8386,
      "ĠhÃ¼dud": 8387,
      "ÉĻrin": 8388,
      "ÉĻrti": 8389,
      "ÉĻrlÉĻrinÉĻ": 8390,
      "ĠilÄ±q": 8391,
      "Ġixtiyar": 8392,
      "Ġkla": 8393,
      "Ġkey": 8394,
      "ĠkÃ¼l": 8395,
      "Ġkuz": 8396,
      "Ġkop": 8397,
      "ĠkÉĻndÉĻ": 8398,
      "Ġkort": 8399,
      "dÄ±ÄŁÄ±na": 8400,
      "ÄŁmaz": 8401,
      "ÄŁunun": 8402,
      "ÄŁumu": 8403,
      "Ġvi": 8404,
      "Ġvo": 8405,
      "ĠvÄ±z": 8406,
      "Ġvol": 8407,
      "ĠvÉĻrdi": 8408,
      "Ġved": 8409,
      "Ġvest": 8410,
      "Ġvec": 8411,
      "Ġveyl": 8412,
      "lardakÄ±": 8413,
      "daya": 8414,
      "dalaÅŁ": 8415,
      "ladi": 8416,
      "lada": 8417,
      "laha": 8418,
      "lamÄ±ÅŁdÄ±lar": 8419,
      "mamaÄŁa": 8420,
      "maÅŁa": 8421,
      "mamÄ±san": 8422,
      "unlarÄ±": 8423,
      "unta": 8424,
      "Ġest": 8425,
      "Ġesp": 8426,
      "Ġtin": 8427,
      "ĠtÉĻt": 8428,
      "Ġten": 8429,
      "ĠtÄ±x": 8430,
      "ĠtayÄ±": 8431,
      "Ġtrif": 8432,
      "Ġtip": 8433,
      "ĠtarÄ±m": 8434,
      "lÉĻrdir": 8435,
      "lÉĻrinizi": 8436,
      "mÉĻtÉĻ": 8437,
      "dÉĻlÉĻÅŁ": 8438,
      "dÉĻkcÉĻ": 8439,
      "ĠÃ§ÉĻl": 8440,
      "ĠÃ§eÃ§": 8441,
      "ĠÃ§im": 8442,
      "ĠÃ§Ä±ÄŁ": 8443,
      "ĠÃ§ÉĻnÉĻ": 8444,
      "ĠÃ§Ä±nqÄ±l": 8445,
      "lic": 8446,
      "lip": 8447,
      "ligeldÉĻ": 8448,
      "mient": 8449,
      "ĠbirnÉĻf": 8450,
      "Ġkis": 8451,
      "Ġni": 8452,
      "Ġno": 8453,
      "Ġnov": 8454,
      "ĠniyyÉĻt": 8455,
      "Ġnot": 8456,
      "ĠniyyÉĻti": 8457,
      "ĠniyyÉĻtindÉĻ": 8458,
      "ĠnÉĻrildÉĻ": 8459,
      "alÃ§": 8460,
      "alÄ±nda": 8461,
      "allarÄ±": 8462,
      "alet": 8463,
      "alÄ±m": 8464,
      "aloq": 8465,
      "erÉĻ": 8466,
      "ÉĻssi": 8467,
      "ÉĻsiniz": 8468,
      "ill": 8469,
      "ilmÉĻ": 8470,
      "ilti": 8471,
      "illin": 8472,
      "Ġbaha": 8473,
      "ĠbayaÄŁÄ±": 8474,
      "aqdan": 8475,
      "ĠgÃ¶dÉĻkcÉĻ": 8476,
      "danÄ±ÅŁ": 8477,
      "danÄ±b": 8478,
      "izan": 8479,
      "izin": 8480,
      "yadÄ±": 8481,
      "yabr": 8482,
      "ÉĻkindÉĻn": 8483,
      "Ġolsay": 8484,
      "Ġolmusan": 8485,
      "ÉĻlsÉĻ": 8486,
      "ĠdaÅŁa": 8487,
      "ĠdaÄŁÄ±n": 8488,
      "Ġdaban": 8489,
      "Ġdaimi": 8490,
      "Ġdayaq": 8491,
      "ÉĻmin": 8492,
      "Ġpon": 8493,
      "Ġpax": 8494,
      "Ġpok": 8495,
      "ĠpÃ¼s": 8496,
      "Ġpak": 8497,
      "Ġpost": 8498,
      "Ġpint": 8499,
      "amb": 8500,
      "amdakÄ±": 8501,
      "ament": 8502,
      "one": 8503,
      "onar": 8504,
      "onlar": 8505,
      "onuna": 8506,
      "Ä±ÅŁlayÄ±n": 8507,
      "stÉĻy": 8508,
      "ĠÃ¶v": 8509,
      "ĠÃ¼lgÃ¼c": 8510,
      "Ġbul": 8511,
      "ĠbuÄŁ": 8512,
      "ĠbuladÄ±": 8513,
      "dirÉĻ": 8514,
      "dirmiÅŁ": 8515,
      "dirmÉĻk": 8516,
      "dirirdi": 8517,
      "dirib": 8518,
      "Ġyasaq": 8519,
      "Ġyava": 8520,
      "Ã¼rsÉĻn": 8521,
      "ÉĻydim": 8522,
      "ater": 8523,
      "atlara": 8524,
      "ĠÅŁor": 8525,
      "ĠÅŁÄ±l": 8526,
      "ĠÅŁillÉĻ": 8527,
      "ĠÅŁtat": 8528,
      "ĠÅŁÃ¼kÃ¼r": 8529,
      "dus": 8530,
      "dular": 8531,
      "ĠcÃ¼z": 8532,
      "Ġcek": 8533,
      "ĠcÉĻng": 8534,
      "ĠcÃ¼mlÉĻ": 8535,
      "ĠcÉĻvah": 8536,
      "ĠcÄ±lÄ±": 8537,
      "ĠetmÉĻz": 8538,
      "ĠetmÉĻyÉĻn": 8539,
      "ĠetsÉĻm": 8540,
      "ĠetmÉĻzdi": 8541,
      "ĠbaÅŁlaya": 8542,
      "ĠbaÅŁlandÄ±": 8543,
      "ĠbaÅŁlayÄ±ram": 8544,
      "ĠbaÅŁÃ§Ä±larÄ±": 8545,
      "ĠxÉĻz": 8546,
      "Ġxala": 8547,
      "ĠxanÄ±ma": 8548,
      "Ġxii": 8549,
      "Ġxristi": 8550,
      "entr": 8551,
      "enyor": 8552,
      "dÄ±ram": 8553,
      "dÄ±rdÄ±ÄŁÄ±": 8554,
      "ĠgÃ¶rÉĻy": 8555,
      "ĠgÃ¶rÃ¼l": 8556,
      "ĠgÃ¶rÃ¼nÉĻ": 8557,
      "ĠgÃ¶rdÃ¼nÃ¼z": 8558,
      "Ġfan": 8559,
      "Ġfal": 8560,
      "Ġfon": 8561,
      "Ġfini": 8562,
      "Ġfut": 8563,
      "ĠfÉĻsi": 8564,
      "Ġfot": 8565,
      "Ġfoks": 8566,
      "ĠfÉĻx": 8567,
      "ĠfÉĻvv": 8568,
      "Ġfed": 8569,
      "ĠfligeldÉĻ": 8570,
      "ĠfÉĻlsÉĻ": 8571,
      "ĠÃ¶zÉĻl": 8572,
      "ĠÃ¶zÃ¶z": 8573,
      "ĠÃ¶zlÃ¼y": 8574,
      "ikasÄ±": 8575,
      "ĠnÉĻvaz": 8576,
      "Ġsap": 8577,
      "Ġsalaq": 8578,
      "Ġsalaraq": 8579,
      "Ġsalacaq": 8580,
      "ÄŁÄ±q": 8581,
      "ÄŁÄ±dÄ±r": 8582,
      "Ġdeyirdim": 8583,
      "ĠdeyÉĻrÉĻm": 8584,
      "ĠbilsÉĻ": 8585,
      "ĠbilmÉĻdÉĻn": 8586,
      "ĠbilmÉĻyÉĻn": 8587,
      "Ġbilyar": 8588,
      "ĠbilsÉĻydi": 8589,
      "Ġanlaya": 8590,
      "ĠanlayÄ±b": 8591,
      "ĠanasÄ±nÄ±": 8592,
      "Ġanbara": 8593,
      "inÉĻdÉĻ": 8594,
      "yÉĻcÉĻyÉĻm": 8595,
      "Ġaralan": 8596,
      "Ġudu": 8597,
      "ĠuÄŁul": 8598,
      "ĠalmÄ±ÅŁ": 8599,
      "Ġalanda": 8600,
      "ĠalmÄ±ÅŁam": 8601,
      "ĠalÄ±rlar": 8602,
      "ĠaldadÄ±r": 8603,
      "ĠalmÄ±ÅŁdÄ±lar": 8604,
      "Ġalkoq": 8605,
      "Ġallaha": 8606,
      "olkov": 8607,
      "olmadÄ±ÄŁÄ±nÄ±": 8608,
      "iblÉĻr": 8609,
      "ĠmÃ¼c": 8610,
      "ĠmÃ¼ay": 8611,
      "ĠmÃ¼kÉĻm": 8612,
      "ĠmÃ¼lah": 8613,
      "ĠmÃ¼zak": 8614,
      "ĠmÃ¼ÉĻssi": 8615,
      "ĠÃ§oxlarÄ±": 8616,
      "larÄ±ma": 8617,
      "larÄ±mÄ±zÄ±": 8618,
      "caqlar": 8619,
      "tah": 8620,
      "taÄŁal": 8621,
      "Ġdemir": 8622,
      "ĠdesÉĻk": 8623,
      "Ġdevir": 8624,
      "Ġdediniz": 8625,
      "ĠdemÉĻmiÅŁÉĻm": 8626,
      "ĠdemÉĻyÉĻcÉĻyÉĻm": 8627,
      "isas": 8628,
      "isindÉĻn": 8629,
      "Ġinqilab": 8630,
      "Ġinfor": 8631,
      "Ġintuisiya": 8632,
      "Ġverim": 8633,
      "Ġvermir": 8634,
      "ĠverÉĻrÉĻm": 8635,
      "ĠvermÉĻyib": 8636,
      "ĠverilÉĻn": 8637,
      "ĠvermÉĻsini": 8638,
      "ĠverÉĻrkÉĻn": 8639,
      "Ġverilir": 8640,
      "ĠvermÉĻyÉĻcÉĻk": 8641,
      "Ġverilirdi": 8642,
      "ĠvermirlÉĻr": 8643,
      "ĠverilÉĻcÉĻk": 8644,
      "unuza": 8645,
      "abalÄ±": 8646,
      "Ġsonsuz": 8647,
      "ĠsonadÉĻk": 8648,
      "etik": 8649,
      "etinÉĻ": 8650,
      "etanÄ±n": 8651,
      "yiÉĻlÉĻr": 8652,
      "ĠÃ¼Ã§ÉĻ": 8653,
      "ÉĻbÉĻk": 8654,
      "ĠhÉĻrb": 8655,
      "ĠhÉĻrÉĻsi": 8656,
      "Ġlal": 8657,
      "Ġlay": 8658,
      "Ġlayih": 8659,
      "ĠlabÃ¼d": 8660,
      "uÅŁdan": 8661,
      "ĠgÃ¶zlÉĻrin": 8662,
      "ĠgÃ¶zÃ¼nÃ¼n": 8663,
      "ĠdÃ¼ÅŁÃ¼nÉĻ": 8664,
      "ĠdÃ¼ÅŁÉĻcÉĻk": 8665,
      "ĠdÃ¼ÅŁmÉĻni": 8666,
      "ulda": 8667,
      "ulduÄŁu": 8668,
      "ultu": 8669,
      "ulmasÄ±nÄ±n": 8670,
      "ayÄ±n": 8671,
      "ayÄ±rdÄ±": 8672,
      "aydÄ±n": 8673,
      "ayrÄ±": 8674,
      "iyÉĻn": 8675,
      "iyini": 8676,
      "Ġbezdir": 8677,
      "ĠqarÄŁ": 8678,
      "Ġqarla": 8679,
      "Ġqaraya": 8680,
      "ĠqarmaqarÄ±ÅŁÄ±q": 8681,
      "lana": 8682,
      "lanmaq": 8683,
      "landÄ±ÄŁÄ±nÄ±": 8684,
      "lanacaq": 8685,
      "lÉĻncÉĻ": 8686,
      "lÉĻnirÉĻm": 8687,
      "lÉĻnmÉĻsi": 8688,
      "ĠelÉĻyÉĻ": 8689,
      "ĠelÉĻdiyi": 8690,
      "ĠelÉĻyim": 8691,
      "ĠsÃ¶k": 8692,
      "Ġrif": 8693,
      "Ġrez": 8694,
      "Ġriya": 8695,
      "Ġriver": 8696,
      "ĠsizdÉĻ": 8697,
      "ĠsizcÉĻ": 8698,
      "Ġistedad": 8699,
      "ito": 8700,
      "Ġkimisi": 8701,
      "ĠyerlÉĻri": 8702,
      "ĠyerlÉĻrin": 8703,
      "ĠyerlÉĻÅŁdir": 8704,
      "Ä±mÄ±nda": 8705,
      "ininin": 8706,
      "ĠhÉĻc": 8707,
      "ĠhÉĻft": 8708,
      "ĠhÉĻzm": 8709,
      "ĠhÉĻlak": 8710,
      "Ġbaxaq": 8711,
      "ĠbaxmaÄŁa": 8712,
      "ĠbaxÄ±rlar": 8713,
      "ĠsÉĻnsiz": 8714,
      "ĠÅŁeylÉĻrdÉĻn": 8715,
      "ĠÅŁeypur": 8716,
      "Ä±lmayan": 8717,
      "Ä±lmasÄ±nda": 8718,
      "ĠÃ¼Ã§Ã¼nsÉĻ": 8719,
      "iqada": 8720,
      "Ġqalma": 8721,
[...]
